FF28
020B
FE3D
011D
FF07
0273
FE7F
FFE7
FF9A
FEA4
FD9D
FFE9
03DD
FF33
012B
FD4D
FD94
0058
FE0D
0134
002A
FEE9
0176
FDDA
FFDC
018A
01C6
FEE0
FDBE
FEF2
FE82
FED8
FF87
04BD
0755
06B5
09E1
0BA4
07F7
0D42
0F1A
0ED4
0A95
0FAB
0BDD
0B8A
06F5
06E2
08C4
0323
0802
0473
0064
FEB8
00F4
011D
0089
0004
0152
0549
0304
06DF
0C56
09D5
0D6B
0CCB
114D
1270
0A92
0B5A
08F6
05E5
0B7A
0B4D
0689
0886
03DD
0384
048D
06FD
FFD9
FE69
01C1
0256
FDB6
01B2
0272
06C9
0556
02D7
04E3
08FF
0CBC
0C1D
06EB
0950
0522
0A3D
0932
08E6
06C2
0764
02BF
0066
01AD
02B2
05B0
0C0C
061F
00A3
032E
FF67
FE14
0128
FF2B
0061
FFEC
FF1C
FA18
FD35
FD45
FEE1
0470
044D
0405
06F8
042B
0664
0350
06BC
02AD
0067
FEF6
083E
0ECB
13F8
06CB
FC15
F9B1
FF4C
FDE5
FEC5
FE3A
FCE8
F668
F3F8
F730
F795
FDE0
FE68
0481
00A4
01D0
0476
0218
FA15
F85D
FACE
FE75
0125
0217
0519
09FA
1051
0DFD
FE32
FCF0
0161
FDE1
02B9
FFCD
0078
FBDA
F74D
F628
FABC
FDFD
FA36
FDC0
FDE2
0243
0022
F7F4
F33B
F378
F6B2
FA49
FD2E
0137
056F
0972
09D5
0E0A
08BA
060A
00CC
0189
0A69
03B3
031C
FCC7
FFAD
002C
FE4C
FFE6
01C5
FE39
02F6
0196
FC9A
F7DF
F34F
F3C7
F883
FD56
FD40
FEEC
FF0D
016E
01EE
0919
09B4
0440
03C0
03B2
083B
05E4
0643
FFA2
0487
01D0
036C
03CE
0265
020D
0636
05F7
01A3
F77B
F36C
F521
F83A
FF4E
FF6E
FF00
FF1A
FE8F
03B7
02B1
05D4
05AB
F98F
05D8
0760
0373
059C
0A3B
017E
02C2
0095
03C6
0359
07F9
0F24
0D3F
02CE
FA38
F534
F8A9
FAA7
FFC7
FF3E
FDDB
012E
FF8C
0396
0A7D
0B18
06FD
016E
026B
058B
05B6
0A4A
056D
04D7
02DF
04E3
02CE
089B
09E9
143E
0BC3
0203
F808
F5F8
FDBE
FE53
02AA
0112
0164
02E1
FE3A
FC63
0A09
0C01
0E89
048D
016D
0424
0BA0
06DC
0522
0214
059D
077D
04BC
06D5
0F33
119D
0B84
00D4
F8F4
F23D
FB16
0625
0625
03BB
FF29
FA6E
FB98
FE23
038F
046C
0323
0139
01A6
02BC
0956
069D
0626
0685
075B
09F9
0652
0A43
0F18
0EFD
05F2
F7AE
F264
F71B
0120
063E
0290
FF36
FE93
FB1E
FD2A
048D
07C4
05A6
F660
F9DD
FF34
0609
09D6
03A1
02A0
07E8
0620
05E6
07AA
098C
0FF3
0A3B
F5A5
EF32
EFC4
F4CB
FE2F
005E
025B
FADF
F7DC
FC75
034A
0E8E
0ED9
01EC
F2C6
F744
053C
0434
0945
FEF4
FCDE
06E6
0362
023D
0456
0864
0710
FBD8
F125
F078
F430
FA09
FD52
FF55
FA5D
FA00
FC31
FE14
0B94
1636
155B
020E
F31B
F87E
0623
02AB
0730
FEB5
F8FC
0304
017E
02CA
0583
0333
00DF
F515
F146
F1AB
F753
FA56
FA79
FD7F
FC42
F911
0003
05A9
0B90
0FC5
0EFA
FEF9
F4E6
F8E5
FCF7
FDAB
0018
FEE7
FD58
FE72
FEDF
FE04
027F
01AF
FC52
F787
F0B2
F3C0
FA97
FF0E
F8ED
F803
F82C
FF20
025F
050F
081C
0A4B
06F3
F95C
F2B2
F7DA
017E
0488
FE1F
FE6B
FDD0
0164
00A7
FEC8
FE55
FE91
FE51
FA9C
F5AD
F7E8
FDEE
FCB4
FBD0
F9FC
FF19
01FF
0268
0671
03D2
0745
049D
FB0F
F1D7
FB2C
05B3
022C
FFD3
FD26
01A8
FB27
FAEC
FD5A
01FE
FEA3
FCE0
FB8B
FCE8
FCB0
FFE9
FDEA
FA1D
012A
FFB0
00F1
06CB
076A
056E
FFBA
0247
F90A
FAC0
F88D
01C6
02BF
030C
FBD7
031C
FE8F
FD50
FEF2
028D
FE9D
0033
02B9
00B4
01B9
0358
FFCA
FF6D
0319
00E4
0405
0218
013C
000A
FEE1
FF34
F99A
FC73
FB56
FF15
0274
FE76
FC91
FF93
FE20
F930
FBDA
FEA8
FB8E
FE79
0851
07BA
0531
0533
0077
FE01
01B6
000F
01FD
FDDC
FBD6
FC45
F7B3
FA12
F531
013D
03D8
FE46
01F2
F8EB
FAAB
FC20
F843
F65E
F977
FE69
FC1F
0264
05EE
03F1
0393
021D
022C
016F
0167
0078
FEF8
FFCB
FD9A
FB3C
F971
F79D
FB48
02A1
008C
002C
FF6F
F949
FA03
F9FD
FD8A
F7ED
F877
F926
FA9A
0063
FF9F
02F0
007F
04A7
02E8
0692
04B5
0164
0499
FD02
FD46
F9F9
F699
F33E
FB95
0648
01B0
FEC0
0136
FCD0
FE73
F910
FBE5
F9FF
FA66
FD14
0168
00C7
00B9
0316
057F
06CA
05B8
05C7
02E6
FE00
0034
FA8B
F9C4
F8A5
F2AE
F3DC
FB5A
FF89
FEFA
017C
0255
FD0D
00CC
015F
01B4
0008
045F
0458
06CD
04A3
01AC
02DB
0333
03A5
00DE
FEC5
FFB9
0150
FC9D
FB29
FD89
FE39
F7DA
FDE1
FFD4
FECA
FDC4
FDFE
0178
FD2C
0097
045F
0357
055F
03E4
059D
062A
0105
04E7
0831
0240
FECC
02A7
06A2
02FB
0585
04B2
FEFA
06C4
04FB
FBBC
023C
FE52
01B1
022D
FFB0
01B1
FFC4
FDA4
FE79
FF0A
FE08
0260
0540
05F6
02B1
0300
019B
033A
FFF7
02FA
0204
00DD
0575
06C7
FE58
0319
06F4
0050
FC04
032D
0128
0212
01C3
FD9F
FF47
00B1
0289
06C2
0565
0223
03EA
FF34
0079
FE34
FD99
0812
0021
FE9A
06EB
057D
05BA
FCD1
027D
0401
0488
065B
023F
0124
FE02
0218
FE8F
018A
FDE0
FEE9
FFB7
FD9F
FF63
00BE
FE0E
01AF
018C
FFF7
04F0
0194
FCAB
FEAD
FE20
FE50
FF9F
FDA7
0229
FE1C
00AB
0172
01E9
FEAC
FFC8
FE0B
00D3
FD8B
0211
FDF6
028D
03AB
0260
03DA
0378
03C8
02A2
02E1
08B2
0CF8
047A
0851
0C4B
0A89
0B24
103C
0AA2
06C7
07E8
062E
FF59
013C
FD8D
FE58
0268
FF4A
0216
0218
038B
03D8
080D
095C
03C3
060B
0B26
09E1
104B
11F3
0B4B
0D76
08CA
0D05
0CA7
0ECF
1029
0BC8
0E6F
092D
0685
032F
FF0B
00DB
011E
008E
FDC0
038D
080C
05E6
01BB
03A0
00DE
FD7E
026A
076B
0BC2
0ACA
09DB
090D
0B1D
125C
0CBE
0B68
0AF3
088A
01B8
03ED
013E
FF4B
047A
022E
FDB4
0049
FAD4
0459
0261
FFD4
017A
04DE
FEB0
FC16
FCA6
0667
0855
06D8
0859
0AC4
07EA
0768
05F6
05C5
FE50
FEE8
0119
0276
0100
038A
0196
04E7
FFE7
0081
039C
0389
FF75
FA94
019E
FFF4
FEF2
FE0B
FD20
001F
006D
0503
020C
042E
074D
07E0
0613
040C
0488
0204
FF07
FF5E
022C
03AF
05BD
043B
0242
060B
FE7D
0362
00C3
0111
00D9
FE91
0108
FFCE
0037
003A
022F
0514
0143
008C
0160
0237
0677
03BC
0302
0058
0692
0361
0853
0C5F
076C
FD5A
00C7
05A2
FC13
0546
04D8
0087
007D
01D4
0047
0395
01F7
02BE
03F0
0595
01E0
031A
0095
016B
0354
01FF
0153
046A
0383
050C
0BAB
0CA7
07EA
01D8
016A
FF47
FB81
0297
0080
0291
0016
006A
FF8D
0164
0205
00D3
020D
FF86
FE93
FDB8
022C
FD3E
FEDD
01A0
06A3
0417
0506
0AB9
0BD2
0C4B
09CD
0174
0251
FE81
00D6
02B8
07B9
00B3
FD2A
021E
0060
010D
0029
FF59
011F
FF79
FFF7
FB68
FBB6
FB24
FFA9
FF33
06AF
0601
0A04
0F33
14F5
13F6
09CC
043A
FF02
FD17
0188
0899
03A0
FE46
F928
FA9B
FCD3
01BC
FCFC
FF67
00F5
0856
00EF
FD12
0041
FF26
FD99
FCA1
0175
02B6
0373
0A03
11D4
1875
14AC
03D9
0266
0198
FF67
0B31
028A
F7AF
FDFA
F901
FB12
0069
FC38
FF84
0533
0843
04A2
0067
FE46
FD0E
F785
F6C2
F449
F6AF
F57F
FC11
0190
0FE7
0907
0A21
FF99
0200
FCBD
03C6
FBCC
FA6B
FFED
0066
FC1F
FF2B
FEF2
FED5
0710
0DEA
0956
0073
FAEA
FA40
F4F6
F1DF
EF2E
EE4A
F21D
F602
F969
0184
FF46
0292
0054
02B5
0080
02FA
FDA3
FC5F
FE7C
02AF
FF43
FD93
FF4F
00AE
0C49
0A15
04D8
FC23
F863
F48C
F41B
EF2B
EC56
F445
FB6B
FD1C
FCB7
F84F
F301
F95D
020A
0626
039B
FC3A
FCB6
FCE7
FC4E
FD46
FB84
0008
FF96
0932
0E4C
045D
FC12
F95E
F6C8
F456
F700
F638
F6B5
FE11
03C8
06DF
03F2
F574
F488
FC9D
0018
054B
043C
FC7F
FC78
FC48
F651
FC71
FF99
0180
08CA
0B32
09BD
FC56
F64D
F843
FA9B
F64B
F7AB
FD04
0116
0387
0350
05E7
0580
FAB1
F698
FF25
FD4E
05CA
04B5
FB64
FE3A
FCA4
FA39
F99E
FFE0
079C
0B13
09C0
FB78
F4ED
F605
F570
F5FF
F703
FC26
01C9
00BB
034F
0508
064E
0510
F9A1
F4B0
FDB2
0205
0651
031D
0068
03D7
032C
FC43
FDA2
0229
04BA
093B
FE67
F373
EEF4
F284
F5CE
F924
FEFC
FE5F
01D9
0063
0265
07B3
04E0
FF13
FAB0
F4F1
FEED
007A
0449
028C
01FE
016B
0297
03C9
03D4
0A59
0A25
0291
FABF
F219
F1DF
F665
F875
00F3
0616
0322
0136
01C6
0AA9
0A9B
04E4
FA0D
F933
F53E
FB0F
FFD3
0649
041F
01CE
01B6
0659
0839
0CEF
0B4D
0BCB
095B
0247
0138
FECF
FCEC
00BC
02CA
026C
063C
0544
04A9
0873
098F
03F7
FBC7
F61E
FAA5
FF34
FE53
06D8
01C6
06F5
0282
0526
0A7B
076B
072D
0854
068D
071F
076A
034E
03D6
0388
0384
022D
02FE
0576
05E5
08C0
0881
05BB
F94D
FD25
FB4F
0316
0071
0399
0154
01F5
041C
0450
0452
0715
05EB
FFF0
025B
05C1
056B
0644
036B
0489
0390
0089
02FC
0217
0624
04C4
04EA
FE2A
F9BC
FDE9
03F2
022D
0338
FF47
06CF
0349
00C8
004B
02A2
068C
01CF
FE79
04BC
05BF
06B4
0526
03A6
03CE
005E
0016
017B
05A8
0495
0024
02E3
FE12
FB82
F993
0128
002F
FECC
0276
069F
0DFD
03FF
0051
04DB
056F
0444
03FB
00F7
047B
055A
0263
00AA
0124
FF01
FE63
02BE
0234
0088
FE88
00C4
FD30
FF54
FD91
FE91
FEF8
019C
FE6F
03CE
0F7A
0A4E
0933
0888
08F2
047F
0717
0711
0480
080D
06D9
035F
041E
0219
04AE
0181
FC3E
F91C
FA80
FE43
FF90
FC5C
016C
0279
01FD
024C
FE22
045B
0393
FDF6
004C
0210
03F6
0231
04C2
007A
01BC
0409
0366
FD6E
03BE
059F
08A7
048B
0005
F9CA
00C2
06FB
FC96
04E0
0054
0093
FF06
0147
00E1
FE9C
0222
01AE
FBBC
FAAC
FB92
FBE9
FA76
FA9D
FBF7
FE22
FB20
F941
004A
05DC
04D8
0375
0304
06F6
FFCC
FF72
0250
02B1
01D4
01F7
0209
FDDD
0036
FDED
015D
0141
0257
FFEF
FF68
FF4E
FEE4
0573
0571
027F
0236
FD04
FC8D
01B7
0219
FBB7
FDDB
FC55
FC93
FBB7
FB42
FE88
00BE
0253
017D
0123
FF6A
FD94
01F3
FE9C
01AB
00A2
014D
01AB
0182
FECA
025E
FE21
FE3F
FF75
FE70
008D
FFD4
FF1B
FE0A
0230
0276
FE3C
FDA6
FE3E
0069
012B
0084
023A
0021
FFA4
0141
FF96
FD2F
FCB2
00AC
FECC
FE14
F7D8
F6FE
F90F
F6F7
F5CC
FC42
025F
FE40
F7FD
FA9B
FADA
FE7B
FA19
0170
FD99
FE0A
FF56
FE4E
FE33
00A4
FDFD
FAEA
FE82
FC83
00A3
FEFE
00A9
FFE1
FAB1
F5DC
F302
F62F
F52D
F442
F503
F692
F4D8
F595
F71C
F503
F710
F56E
F978
00DA
FDED
FE08
022D
022D
043B
FBF1
F7F4
F915
FA6A
FC36
FDAB
035B
FE75
FBED
FE88
02AF
FD8C
F83B
F60B
F71A
F762
F8AB
F8DA
F92F
0013
FACB
F86D
FDDC
FDF1
FF39
FEA2
FED7
0503
FD8B
F909
F3E9
F6A6
F812
F65D
FB85
0004
01EE
0468
014A
0398
032C
0222
01B6
0367
FD4A
FB12
FB57
F933
FCD1
0425
0879
0982
FE4D
00E6
FF62
FD3E
FBB8
F589
F1EE
F43D
FE4F
FD2B
0128
0376
0A74
0894
069C
062B
0507
024F
07C8
02DB
0170
0399
0293
02AF
0633
07BF
139A
076A
02FD
006E
FDA1
FE07
F734
F1B9
F661
F8EA
FBE4
017E
04B1
037D
0514
067D
01B8
0019
0142
01AF
046A
009B
013F
00BF
017C
04DC
0AE2
1593
137B
0C7B
0C7A
FF6A
FD08
04AB
F05B
EEB2
F1EE
F7D4
FBE8
00AA
032C
03AE
04D6
016A
0185
FC6F
FE8E
FF35
01D0
02DF
0147
FEAB
04D3
0900
12DD
1985
15D6
0D1D
0666
016E
02B9
02E2
F3EF
F0B7
F927
F9F7
FC1B
00E5
0510
068C
0552
060F
FE4C
F871
FAB8
FD39
FD3C
FE7D
0028
02F3
0315
09AD
1325
1A06
1A6E
0B8E
04E1
00AE
FDC0
FF37
FA56
F3FE
F9A1
FF4D
FCD4
0227
052B
0A4C
0F8B
088F
FB68
F359
F3F9
F637
F892
F8B4
FDD1
FC0A
03C3
0601
117A
1AFB
1BFF
10AA
03C7
0033
0011
0248
F178
FB8B
FE2E
020C
0308
06B5
0B1E
09BE
0DC1
0755
FF86
F9CF
F9FB
F7F9
F763
F873
F66C
F897
FC3E
0455
0F8A
1EF6
1D66
1056
054B
FF71
FA4F
FCAC
F0C1
0043
0864
0670
0313
0883
09B5
0900
04D9
0686
0203
0191
FD85
FC18
F843
F55E
F63B
F415
F5ED
FB90
07C4
155B
1C4E
1453
FCBE
FF08
F947
F8C3
00DC
0690
08C0
06AC
0228
0755
0503
0212
045F
03A2
0404
0082
FFC6
FEA4
FC82
FBFA
FF41
FAC6
F2AF
F014
F6A2
FF1E
1395
0F3F
00AD
0069
FF6F
FA52
025C
00EF
0028
FEA6
020E
FEBE
0163
0137
0549
02B8
0424
043F
0347
FF21
FD92
00F7
04F4
01BD
F89C
F323
EE23
F820
0C60
1592
0D72
061D
FBA3
FB34
FF5B
FE3B
FC90
FD26
FA09
FE62
FFDD
0161
045B
FF74
026A
05BF
02A1
0298
023B
00C0
FF87
FAF1
F392
F194
F0B1
FFB7
0F06
1126
04A3
0488
FA2E
F7DB
009B
F798
F800
FADE
FC4A
FE66
034B
011E
008B
00FA
02DC
00E9
0301
0186
FF1C
FC03
FA28
F649
EFFE
EE0F
F323
088A
10FD
111B
063B
FFA1
FBB0
F8CC
0359
F6C8
F911
FB56
FC60
FE6E
FEFA
00F0
FD20
0178
0630
057E
0343
0306
FE2D
F50B
F887
F85B
F842
F6AA
FD92
0F24
11B9
122B
0667
FF3B
FD02
F8AB
02AB
F7D5
FDD4
0834
038A
044F
052E
FFB8
03FD
0586
06E9
0416
054D
02D2
FA4C
F5FA
FB69
FC0D
FD31
FE67
08FF
1314
146B
1168
08AB
0254
F921
FB05
FCAA
FA23
0188
0D11
095C
049D
05AD
0642
02CB
08E6
0847
0427
FDAE
FB06
FB65
FD56
FBCE
0235
025C
05FC
0F88
1A1A
11BE
0896
00A8
FF88
F9BD
FD99
F2F7
FAC8
02B1
0819
08A5
072F
0605
0296
FE4C
0673
06CB
00E6
FE06
FC7A
FDE5
0068
00E8
050F
01CB
0D08
11EC
1A31
0DB0
0527
FE75
01B8
FA56
01BA
FB0A
FC3D
0136
010E
061A
0043
0226
004C
FCAA
014F
FF1C
FD1A
FE1B
FF8E
FE77
0100
01E1
0548
09C6
106C
16D7
173F
0D15
0223
FC2C
FEF7
0038
FFAE
0431
FCF0
FD86
0092
FF79
0142
005D
FD58
0104
0188
FE26
FC98
F9C3
FC03
FE71
FE83
02EB
07C4
0D6E
1633
1910
1726
06F4
0030
FD38
FD84
FCF5
FE94
0668
00AC
FE6B
FC9F
FBFF
FEB8
02AE
0170
0059
0150
0204
FD6C
FC83
FF70
FB2A
0096
FFC8
04F9
121D
159D
1497
0F09
04DE
FDCF
00AD
0059
010C
FF96
F971
FAC8
F91E
FB8B
FC8B
010E
0041
FEF2
0022
002C
01E1
0004
0025
FFA0
FB9F
0001
03AA
0F9A
13B4
119D
10A6
06B4
02D9
FB43
0192
FE54
FEE5
0091
F1E8
EC90
F382
F4BC
FB19
FE41
017B
FF32
FFA5
0291
00A1
0149
015C
032C
FFCB
04CA
0AAD
1118
1404
0E83
096A
09B1
01CA
FF4C
00FB
FD8C
FF80
FF36
01C8
F94C
F68A
FC21
FCCA
FAB6
FE19
0117
FE44
FDDA
012B
FF94
07AA
06CF
0695
0353
0275
0F79
0FF3
0B03
0378
025D
001C
FFA5
018C
FFF9
0272
0214
FF47
00C4
F9F8
FF90
FBA1
027A
060A
06FE
0C75
0E68
07E5
0A31
07F2
0700
0679
00F0
0746
0E24
0AA1
0810
09C7
03C5
FCF7
FDA6
001A
005A
01E5
01D0
00E1
FE65
FD5F
FBB8
FEE4
FE01
FF2E
FC7E
0242
052C
0258
0749
03A7
FEF4
003F
FCDD
FC9E
FCFC
FFC8
FE00
000B
FDBF
007B
01B1
FE85
FDF3
FDAA
025E
0089
01CD
FECE
0011
0042
FFFA
FD9B
0157
FF5F
013A
0250
0269
01AC
FECE
FF06
00F3
0090
0179
FE94
FE21
FF34
0141
FF58
FE61
FE54
0030
FEDD
FF35
000E
000D
FFF4
01EC
05D4
07D4
FEB3
00CD
FD89
FDE3
FB09
F91E
FB05
FDF5
FC80
FC43
FDC6
FF69
FFB2
00E7
05C6
0222
001E
018D
00C2
00C6
FEBA
0296
F8CB
FB4B
FFE9
00B3
00D4
FE64
FECE
FEB6
FD85
FDC2
FE0D
FAAC
FE64
FB1A
F9E4
FFE4
FAD5
FEC5
FD15
010B
008D
00CB
0522
01C6
FF8B
001B
01CE
0373
FADA
FD0A
FA83
FC1E
FDE7
F9FE
F96F
FEBA
FD20
F266
F4EB
F40B
F30E
F4B3
F985
FE1C
FE4B
FDE4
00C6
02F8
0613
03D8
0210
000A
003A
0077
0203
0383
03DC
FB62
F682
FCEB
F97D
F9BE
FD57
F5FF
EEB2
EE9F
F043
F06E
EA90
EFFB
F70E
FC93
001A
03E0
03EF
014A
0290
0717
0673
06C1
044E
01D4
0004
FD07
FB0B
F5ED
F947
F21B
F321
F73A
F4A6
F65F
FE46
02C2
0442
020D
007B
FD0B
FD14
F9D2
FF0B
FEAE
0024
FF3C
FA6F
FE9C
0751
03EB
FF2E
FEB9
F91A
FDF1
012A
FA69
F572
F5E0
F7A7
FB6A
FDB3
FCC5
041B
05CA
09CD
0B35
0B5D
08F7
0421
FECB
FDCF
FEBB
FC66
FBA3
FD94
01C2
0393
FA26
0292
004D
FA85
02A2
0437
FBE7
FC04
FF3D
FCF1
00F8
0229
0501
04AB
0860
059D
05ED
078B
0860
FEF4
01A1
FCA8
FEC6
0141
FCE1
FD89
FFE8
FC16
FA8E
02C2
FE2C
FFE8
0271
0135
0292
0196
05AE
00B4
0392
040D
02D5
0196
0508
06ED
05C0
0898
0266
01A0
0098
007E
FB75
01C3
023B
FEFA
FDE2
FEBB
0042
048A
01B1
0217
FEB2
0281
FFD4
031F
089F
05E5
0227
017D
07AC
064B
07AB
0BA4
0792
039A
014F
0129
002E
0110
004E
02A4
02BD
0591
FC09
F9EF
FEC7
FDAA
00D9
FFE4
02A0
028F
0242
0953
0F39
09C7
0772
0774
0AC0
0A88
0750
03E2
05D0
FFE8
FE85
005A
0373
0325
059C
0715
065B
03B7
F894
F592
FBB7
016A
0188
041C
0348
038C
0880
1187
0E01
0A55
0A9A
0A3E
0AB3
073F
0299
02B6
FF5F
FEC2
02DF
039C
053D
04FF
090F
09EF
0F08
066F
037F
01D8
03A7
02D6
02B4
05F1
0809
0518
0E05
0E4E
0AC5
06FB
0744
0347
001D
FD2B
F5EA
F944
FFD7
0196
05A6
076F
08CA
07AB
0889
0ADC
0B3C
0DBF
04D0
08D1
07F9
FE7C
FB0B
0244
078E
025B
0D0F
034D
FEC6
FEF5
FFA3
FD31
F6E4
F660
F4C1
FA63
034C
0707
09C0
086D
034A
049F
078D
03EF
0352
FFC5
F9F5
0909
0A17
08BC
FA52
FFE3
05EF
0412
0306
FE59
FE09
F76D
F6AB
F3BF
F5C9
F408
F804
FE6E
FEE6
028A
0913
07F2
0414
FEA0
020B
FEAA
FD38
F687
F363
028A
0966
089D
F9B1
FE3F
FA2C
FBA2
0000
F972
F778
F454
F636
F02C
F3B1
FBBF
FA45
FCD8
FD8C
0239
0463
04BC
02CF
FC8D
FC73
F6FD
F539
F14B
F2B8
F9AB
0150
025E
0502
FD66
FA2F
F928
F9FC
F904
FA7E
FB56
F975
F392
FAB9
FCE8
0258
FED1
FFC3
FF23
0361
003F
001E
FBFB
FA80
F3ED
F76F
F4EC
F484
F876
02ED
01E8
FF56
FDC2
FBFC
FA12
F72C
F091
F4B6
F9D7
FAD7
007E
FD97
01F1
046E
036E
012F
011C
004D
FD16
FD33
FBB4
FC43
F664
F299
F139
F532
FB52
F979
FEEA
0302
FD4B
FB77
F920
EFCB
EF80
F750
FE0E
0105
03CA
058D
0544
04A2
00FE
FF9F
FF71
FA3E
FBC7
FC64
FEDB
F6FC
F7C5
F42F
EF03
F2AC
F789
F9FF
FCA4
FB28
FF36
000E
F969
EE1F
F3D7
F5FC
0090
02FB
02D0
0239
FF7F
FEC6
FC93
FF15
F9A4
FAE6
FA8E
FE36
FDA9
FA13
F52B
F8A5
F728
F906
FB6B
FAC8
FE04
FF26
FE36
FAFA
FA61
EF38
F5D7
FBB8
004A
008B
FD0F
FBAC
FC86
FCC8
FE19
FC5F
FB19
FA29
F9D4
FB28
FD1F
F9AE
F87C
F8DB
FBF6
0460
0625
F97E
F987
FA99
FB1A
F403
F433
F0A2
FA15
FE2B
FC79
FDF6
FAD5
FBFB
FA7C
FED5
FC2D
FCB5
FADC
FA0E
F867
FC92
FE5A
FE7C
FE0E
FD64
00E7
075D
008C
F992
00AD
FB83
0053
F63A
F4BF
F5E5
FC6E
FCEC
0358
FFF1
002D
01A8
0111
0270
FEE7
FD37
FCEA
F8CF
FB00
FE23
FAFF
FF08
00FD
02BF
063F
01F3
F9F9
F7BA
FECB
01B4
FEFF
F95D
F3F1
F9D1
F616
FB13
0158
0073
FC9D
03C6
012B
04FC
0300
00E6
02EB
FFEC
0199
0408
0089
025C
0566
07BF
0603
FF96
FC79
F621
FF96
01D1
0062
FF46
F68B
0378
FF2B
00A0
048D
026E
0141
0257
00C7
0192
03CB
027E
04D3
07C3
0404
01EF
06F5
0B21
09AC
078A
0897
01E4
FBFB
FB34
FF18
007D
FE29
FBB0
FBF7
055C
0E82
0FA6
097E
0C34
0AED
0C62
03B9
0532
0338
06AB
0870
07D2
0352
04DC
02CF
09DD
07F5
064D
019F
F9D2
00D7
FC44
FEB3
FEC2
005E
FE5B
FF7A
0273
06F7
0F25
0FD8
0CDB
0E9D
0D80
0C56
0F68
13D1
14E9
1195
0BAF
0CCB
0C51
09C8
0AC3
079D
0408
FF18
022E
FF4F
FEBD
FDA7
014B
FE98
FF21
0185
FCB1
FF9B
0466
083A
097B
078C
0722
0606
08F2
0567
0B31
0A50
069E
0400
0B2A
0505
0215
00B0
04BC
0222
0046
007C
FF3D
FDC5
0206
01C5
FE43
FD9D
FF8D
FFC9
0002
0043
FEC7
0275
0066
FF76
0048
FF40
FDD4
FDD6
FE87
FFEB
FF45
0125
FDD3
026C
FE60
0060
0231
FED1
00FC
008C
FF2B
FFD0
FF28
FEFA
0033
0371
F796
FC13
03AA
FF7D
FE81
03AE
0437
0334
0505
0494
016D
03E9
0375
05AF
0475
001A
01B3
F7FB
0016
FDA4
FFB4
00F4
01BE
01B4
FFF0
FE7E
035A
01AF
FD70
FFE0
031B
03F0
0380
0033
00B5
0076
0020
FDC7
0807
0AFE
0B02
0979
061C
0691
0544
043D
FD26
F9D3
FF02
FF40
FF85
FFE5
FE80
00E8
FFE2
FD7E
FEC5
FAFD
FE38
FD64
FFDD
F92A
F9E8
FDB4
04F4
08F9
0B45
0B5A
0DBA
0745
0883
0CD8
0BAA
07F6
0784
0720
0535
FF2A
0111
FEDC
F8EA
FD6E
FBC7
F4E3
F86F
F92A
F776
F831
FB2A
FDE0
F9CF
FB00
0051
02D4
08FF
07C4
075D
0169
00FE
093D
0E06
0DA6
07F7
0301
0368
008C
FDCD
0242
FECE
F7E1
F3DC
F584
FA70
FC6D
FE54
0180
04FE
0022
0007
0007
FFD1
01FF
04C7
0616
03D1
0388
0414
0518
0884
0DC9
0C9C
02E5
FE79
FF38
00A4
FEEB
030C
EF6E
F56C
FC41
FCFF
040A
062C
0420
04A6
01B1
019C
01F6
FFFC
0139
00D9
03B9
FEB2
04CE
FF9B
0052
059F
08CC
0B18
0A6A
0765
0030
0250
0293
012F
EF5E
F0C2
F648
0293
0084
0154
00D6
029A
04B3
021B
041D
0352
FFBE
022C
045F
02A6
0438
013A
045B
0558
0A8C
0DB4
0B05
030A
01F9
024E
FF87
0006
EE04
EA18
F8A3
FD26
FD69
FEA4
01F6
01BA
03CD
0738
049E
FFA9
F7EC
F72A
FC0B
FD31
FF81
0275
0216
FECD
0745
0B79
08FB
02EE
FE2C
001E
FD74
FD96
F1A9
F100
F785
F97B
FB8F
00A0
0445
05D4
0896
0E49
0418
F326
EE29
EF13
F1B7
F4D9
F438
F2E5
F4BB
FAAF
FE52
03F1
083A
0361
013C
FF19
FE0F
FC34
F423
F57F
FD67
FC9B
00DE
06FE
0659
06C4
0D04
0ACF
FE47
ED95
E6C2
EF02
F097
ED77
EB73
EEA9
EE0C
F104
F7E8
FD57
0291
050F
FFA1
FFFF
F8FC
F863
F3BA
F92D
FF5F
0616
068A
05A9
085F
06E3
07DA
0504
FA18
EF82
F223
F7D2
FBEB
F88C
F76F
F7D6
F20B
F007
F6E7
F660
FB29
0080
03A7
FD7C
F97C
F6CE
F761
FF6A
011D
0704
0845
05A0
041A
0408
0530
0241
FB22
F18B
EFF5
F5E7
FC8E
FD99
FFCF
038B
00F7
FE71
FA22
F7CC
F7EE
FAEC
F7F1
00B4
FC14
FCDD
F6B9
0145
08A7
0996
076F
03B9
FE74
01DB
047C
FE80
F879
F183
EEB2
F2BD
FB84
FDF2
02E1
07DC
09A3
0B69
063B
002E
F5D7
F31E
F885
03DA
FE56
FFA7
F4FD
0122
0962
0CFB
05A6
00A4
0099
03AD
00F4
FF67
F3A5
F2F8
F0CB
F91A
FACE
0025
05AF
07D5
061D
0E65
0A6D
081C
FAA8
F324
F736
0693
FB4B
025B
F506
01D0
09B6
05B8
025F
0269
FFAF
04D0
017E
0057
F842
F085
F332
F913
FFF4
0299
05CD
061C
08E4
04D4
07FD
09FF
FABC
F16F
F9F5
FC75
FC1D
FC51
FB30
FDCF
03ED
0048
0002
FFB3
0148
096E
0373
FF2F
F74C
F1D4
F65E
FCD1
053C
0B13
0907
0790
0605
03B6
00A3
01D7
F8E2
F0D1
F824
FFD3
0117
FC11
FA38
FCFD
01CC
04BE
01ED
0012
FE3B
0317
05FC
FB90
F051
EF6B
FC94
03D0
0F0B
0D6A
0667
063C
0456
FE62
FFC6
FE1D
FC3E
F56F
FA7C
FD6B
FBF3
FD7E
FCBA
FC15
FEFF
005A
0494
FD14
00A8
00F0
0064
F541
EE0A
F7CB
FF60
0B7E
0DA0
08B9
0694
02A0
0026
FD47
FC57
FBFB
F88F
FB48
F9A5
FE30
FE23
02A6
FE64
0431
FBDF
FF5B
00F7
FFD1
F995
FCD4
FC19
F5DB
F1D6
FE6D
07AB
0E88
07EF
02E7
000B
0085
024F
FDB0
FF3C
01F9
F757
F802
F8D8
0005
02D4
0023
FFAE
03C8
FFE6
FEED
FE57
FD2A
FB7B
FD50
0103
FEF3
001C
014B
0A97
09F8
047A
FEBA
0054
FF4C
016E
0382
00E0
02AC
FFAB
FEFC
0400
0240
037B
F71A
FAC9
0127
0001
FE78
FCC2
FDED
FD95
000A
02C7
080B
0460
04C5
05C7
0341
009F
018D
0345
03A5
05DF
0238
0491
058F
01D3
0319
0347
FF1F
FDDE
F843
FA7E
FE5D
FE78
F9D9
FAD8
FB41
FAC5
FF8E
0448
0537
0731
08D8
0737
06D7
03AB
02EA
009D
026E
0428
04AA
0642
03E2
0179
07EE
02DF
FE56
0089
FCB4
F9DA
FD44
012F
FFCD
FAE3
FB48
FAD6
0032
0370
04BE
03B5
0860
0496
0462
FECF
FE4D
FE56
0468
02B1
02AF
0559
025C
0504
0291
0264
0139
FF4E
024B
0357
F71C
0040
0182
FD0A
FFC7
00F6
006B
049F
0535
0443
0388
0671
042C
0639
04A4
01AF
0829
05BA
0319
0617
0360
024C
FF74
00F9
FDD0
FF64
FE21
022A
014D
FDCE
0035
034C
02B3
01C0
0163
061D
0940
075C
00C2
0009
03F7
0561
03B7
060E
0072
017C
051B
09F8
0B1F
0224
FE78
00A8
020F
FED3
FFD8
003A
FE74
FCE9
FDB9
FC48
FBCB
0203
0704
058A
07F2
03FD
01BA
0118
008C
FD9D
FCE0
FD4A
0190
FF2E
00B3
FDAD
FC0A
0103
FF41
0019
0045
0138
00DB
01AD
FF65
0050
FBA7
FC3A
FD4D
005C
FFF6
001B
FBE4
FCFF
F8F7
F48D
F42D
F8B4
F8C1
FA45
FFC8
FE13
00E1
FE55
01DD
019D
FE05
FF30
0154
FFE3
FFA5
FD8D
0134
0242
FD89
0253
FE54
015F
007C
016C
FF85
FF70
0298
0064
0075
FE7D
FF8A
FFD4
00DF
01FC
01DD
FF16
0173
019F
FF48
FF4B
FED6
002D
FE81
FD94
FF54
0072
FB6C
FBC6
FCE6
FCA1
FBC3
F5CA
F8F3
FC6B
FE26
FD0D
F8AE
F7F5
F888
F938
F7C3
FFCB
F769
FB54
0091
FE4C
FEE6
0118
FD93
00CE
FE38
FC5A
FBA2
FF11
FD0E
FCC0
FCB8
F767
F56F
F4B8
F2E7
F713
F6C2
F911
EF8D
EF3E
F30E
F2EC
F5EC
FAB3
F858
F6EE
F93C
FB84
0019
0017
FFE3
004C
0066
FB3B
FB2C
FC52
FC2B
FCCF
F770
F9A1
F144
EEA5
ED3C
F6B4
F1E3
F2F4
EF0D
F29D
F247
F50F
F2CD
F6E0
FE98
0057
FC6F
F7AA
FC8B
FE53
016F
0181
088D
FCD0
FCD5
F2A0
F5A1
F38F
FA36
012A
03B2
FE50
FFD4
022E
FFC1
FF57
0069
FFE6
FF21
FC4F
0048
00D1
FD07
FFC6
FD5C
F637
FF91
FB7C
0143
0153
0590
FD92
F6C5
F37A
F1A6
F5DA
F7A0
FE66
FCAA
0056
0035
FFEF
0279
01DD
007B
025C
FEBE
FF75
FC0C
0369
034C
FE65
FA11
FEBA
FEB3
FDDB
FE8B
FB22
FC57
F428
F76D
F5B5
F4E2
FA99
FC7E
FBB7
F7D6
FCD2
FF4C
FC97
FD27
FF54
FF99
009E
FD86
020D
FF48
FFC5
03D8
0488
FF12
FC40
0417
0440
02A5
FAC5
F889
F7BC
FA40
FE94
FB8D
FA3A
FB51
F8D6
F9CC
FBF2
F97B
FB1B
FB27
FF40
FE3E
FE5D
00E3
014A
0012
FF86
0343
044A
04D7
FBB0
FED3
FD19
FFBC
F8FC
FAB8
F75C
FB07
FF5C
FD0F
FBFE
FB8E
FCE3
FACD
FD5D
FD52
003D
FB08
FC94
FC08
FC9C
0070
0116
FE13
0199
0124
0155
027D
FBAD
001A
033B
FB16
FAA8
F880
F5D5
F2FE
F5A5
FABF
FD6A
02E2
01F4
04A9
0439
0444
03E9
FA3F
FDC3
FA68
FCD0
FCF3
FFAC
FD89
FD71
0035
FBE1
F77B
F529
FEF7
FE0B
FEA1
FACB
F58C
EE42
F3C4
F013
F878
0350
0951
05D2
0A29
08F5
09AD
022D
026E
036A
FF6C
FCD1
FF8B
FD61
FC51
FD23
FF1E
FDF8
F316
EEF2
F5A8
000A
FD96
FBBC
F38A
EC86
EB1E
F57D
008F
0B37
0B77
0B46
0BB7
084F
08AE
08F5
0819
078C
04BD
013B
02BF
02A6
00DC
0193
0622
06FA
FDE4
F930
03B2
FE06
FF61
FC83
F6F5
ED3F
EF6A
F907
018C
0606
0904
094B
06AE
0332
02B4
0673
0DFA
0E4F
0940
07BA
0653
05F0
0793
09EA
0B7C
10FB
07C5
0346
067F
0111
0105
FEF0
F9B9
F173
F66C
F4CF
FA0E
044C
045C
03A3
FF55
FE3B
000A
088B
0DD7
0DE4
0AC7
0816
09D9
0620
0506
05B7
0116
FF9D
FA9F
02E3
07FB
0A9B
024F
FD08
FB3D
F893
F8EF
F95A
FEDA
FCD1
FB95
FA6A
FBC1
FCC8
0332
086F
0D57
09CB
0A96
0841
016E
FDF1
F65F
F767
F470
F43B
FB8C
FE7B
01CF
0552
02E1
014B
0223
FADE
FECA
FBF2
FB3F
FD59
FA7C
F7D5
FC4E
FD5C
0375
0A02
0E30
08F2
087A
0102
F72D
F010
EE38
EE7D
F047
EC96
F4C7
F7A5
F969
FBF9
06CC
FE15
FE7E
FDF6
F509
F17A
F71B
FE61
02EB
0293
004B
FE7B
0270
059E
0903
0601
02B9
FD12
F293
EC8F
EE32
F14A
F194
F6CB
F313
F220
F902
FE28
FDD1
001F
FEA4
F6E7
EF69
EAA3
EF2B
FF02
0439
06C7
0751
0850
06F3
0602
05BD
FEF8
F944
F75F
F1D7
F00B
F331
F46A
F7D9
F5EA
F10C
F15A
FACE
0191
FDE8
FD2F
FD8F
F5A2
ECBD
ECA3
EF85
FADC
0526
0876
0963
081F
06B2
04B8
FE32
F843
F454
F47A
F2C0
F68C
F68D
F736
F73F
F679
F436
F7D2
0151
018F
0365
F850
FADD
F35C
EE80
F227
F404
FC76
FD2E
0078
0059
FD4C
01AB
FFE6
FAD9
F7BD
F6B1
F334
F4D9
F799
FB98
FA09
FE1B
FDAD
F6F5
F921
FF93
03D2
00DF
FAA3
FAA8
F24F
EEA9
F3ED
FA6D
007C
FE9A
FC03
FACD
FBC6
F9D1
FDE1
FC1F
FB2A
FE8C
FEF2
FDCA
0061
FCF7
FD9C
01BE
FCF2
F923
FE08
FEDF
FF48
04E0
FDD8
F82D
F3B8
EFD5
FA62
FE97
FDAD
FECE
FFA6
FAB6
FA82
F9F4
FD20
FF31
FF8B
0181
0377
01A3
01D3
FEDE
04FF
05E4
0006
0216
FFED
FB11
0061
0039
006D
FDA7
F4F3
F50F
FD57
FE39
FB94
FAFC
FEC0
FBF5
FC95
FE7C
029D
0276
01B3
04C1
09AC
0611
035F
04A5
0760
038C
0241
0398
02ED
FFC1
011B
FE6B
025D
00A3
F4B1
F404
FA76
FCAD
F773
FE24
FD5A
FE13
0000
00E1
0236
046F
015A
0B18
08E0
08BC
0734
0662
0970
04AD
04BD
0363
0866
FA43
FF14
FFBC
0056
00A9
F15A
F3D1
F406
F7AD
F78D
FCED
F8F3
FD23
FEE4
FB06
F979
FBEA
003A
02B6
0365
075A
0B2C
0987
0B83
04F7
08F8
00B0
0101
FB56
FD8F
FDF3
01E5
FEBA
F8CA
F7CE
F86C
F9D0
FAA7
F7A0
F669
F8B1
F919
F446
FA1E
0042
FFDB
0131
0140
0215
0174
0432
01B5
FCEC
0001
FEFB
0066
FAB5
017A
FD92
0200
00EB
01D2
0273
FF3A
03B6
05BD
02D1
03D0
FF94
0356
0590
0066
06D7
03E1
FC16
0259
03AB
FED6
02AB
FB87
F9DD
FE49
010D
FF1F
008C
FE1A
0108
00F4
FF63
0162
FB93
F98C
FF9E
FFFC
FDF4
FACC
FD92
FC5A
0185
F637
FFCA
039B
F923
FA91
FBF5
FE60
F81A
F524
F5EA
FE40
FE45
01AD
FF64
FF4E
FDC8
FE22
FDC3
FE4E
FEBE
00D8
0220
FFA0
01CB
FFC2
020D
018C
FB82
FE11
FE29
00D7
FF8F
017F
0238
00D8
019B
FF51
FFD2
0061
018B
FFE0
FF2B
FEA5
FF0D
00B9
FECC
0133
FC80
FFD6
FBE3
FBCF
FFCD
FF81
FCDD
FA3B
FBD5
FBA9
FB1E
FC64
01FE
FF5E
F732
F81C
FC8A
FE80
FCC9
F8F3
01F2
0236
FE77
0141
01DD
FE42
FD27
FF7B
FEA6
FC49
F9A0
FDBB
00DE
01FD
FCC1
F803
F5A1
F99A
F799
F626
F838
F6F2
F8EC
F517
F781
F547
F402
FA0D
006E
FEF3
FE00
01C6
FFD8
0169
03B0
FDBB
FE15
FFD2
012F
0023
03E5
08C5
03E7
0012
0105
037D
FF2B
FCCF
FC6C
F6D8
F554
F705
F3E4
F6AE
F53C
F9E8
F649
F98B
F82B
FF7C
0030
FD8D
07DF
064B
FE3D
FCB8
F93E
FDDF
0888
0974
0651
03B4
049B
0779
06CE
0464
0445
0524
FBEC
FBEE
F829
FB25
F293
F1E8
F7BE
FDE9
055E
00E8
0259
FDE0
003D
FCE5
F7D6
F76F
F825
FE85
0526
061A
043D
0512
0874
03DA
0489
01C8
066E
03C2
03C0
00EF
0059
0069
FBF3
F608
F6B7
0631
019D
FEF2
024B
0213
0050
FC52
FCB5
FC22
01E9
06FB
0500
01E6
0002
FD2E
FEC7
FC67
FD19
FC07
FE66
FEC9
FBDF
FFF8
FDAE
02CE
FE24
0418
01C2
030E
FFCA
024C
020E
0333
0653
0466
FEB1
0090
0636
03E5
0640
0359
0120
FBCE
FC4B
FC40
F9D5
FAB6
FB97
FDA4
FEB6
FF1C
FDD3
012A
FFDC
0AB6
0BB1
0367
00ED
FEBC
0247
0395
0D3F
0557
02B5
063E
0609
0504
054C
05CE
02BA
FFC4
0201
0191
FDA0
FB9C
0110
0187
0094
03EB
0516
0683
044C
07AA
06EB
030A
0210
FFEB
039F
04F0
029F
00D3
000D
021A
0335
0153
0272
042E
021B
05B3
05F3
04C1
0159
FDA8
045C
0A27
0814
067E
0788
0736
0313
0391
FC09
FA93
FE8F
FD7B
011A
0766
09D6
FF4A
02FA
03AC
052B
00C4
008A
05D8
0606
067B
050D
0165
FD41
FD46
013A
0A70
08B3
0A7C
066F
078A
07FC
0625
FDFE
F700
FA49
FFBC
0284
0879
0C00
FFFF
0345
00DF
02FC
FFA4
01C6
0617
0531
02D8
FDB4
F8DB
F8DF
F975
0091
0134
0339
08C5
0738
0AE0
0C4C
0965
0891
03ED
FFAD
FDB3
0125
07E5
10FE
050D
0388
02E8
01A1
0084
0415
0298
FA8F
FAD2
F663
F7F4
F562
F837
F9AF
FFCF
FCD7
05D5
04F7
085C
0C43
1111
0F13
0A91
08E9
FE61
0216
06A0
0FCD
0349
FF9F
0208
021A
038A
0090
FBF6
FA13
F8ED
F858
FC56
F971
FAD2
F949
FDDA
FD39
FD94
011F
01FC
0A73
0ED2
0F62
0B3B
0DEA
0839
034D
FC8F
0A12
0087
05A6
0711
0AE6
08C2
029A
FBEF
F5E2
FCE9
FA66
002D
FD10
FCA1
FC58
FDFF
FB5A
FE89
FC61
F9BB
FD4D
0980
0DE3
0EEE
09AB
05F9
08F0
FB50
FD90
0082
05C4
0EF6
1574
1084
08F0
FDA9
F759
F993
F8EF
FE0D
FFB3
013F
01FE
016D
FFD9
FCF9
F927
FC5B
FA58
0526
10D7
0FAF
07FA
07DC
0440
FC12
F8FF
FEF0
0122
1150
16BF
16FE
1346
0E87
010C
FD76
0312
01CE
0216
03C3
05A6
0178
FCF4
F9C3
FAC4
FDC8
FB51
064F
0E4F
13D0
0E8A
0718
007C
F983
FB02
FB2F
00A3
070B
0C51
126E
1690
1704
0DCE
0B35
05F4
0634
03F7
066D
047E
03F3
FF97
FCCB
FCA2
FC76
FF86
0736
13BE
1142
0738
0746
FE72
FDF3
FAA2
F436
F929
FE8F
036F
0D44
1065
14A4
1125
0CB0
0C62
0694
063A
03C9
004B
FED2
FD5C
FDF8
FF44
FC15
05D0
0B7E
1502
0FB0
0367
FDE7
FBCE
0351
FE8B
F47A
F5ED
F946
FC0C
02F4
0625
0881
0DA3
08BC
0704
06B6
0358
0298
0007
FDA6
0017
FDC4
0049
00CA
051C
07C5
0E81
0A0F
00BA
FD83
FED9
0597
0079
F868
F559
F9A2
FAEA
FE5D
FDC0
0098
01B6
00B5
0153
015E
000E
022F
FE46
FF46
0051
007B
FDF3
027A
02F1
0A6D
0CBC
0845
FC74
FBB3
FA02
FE6C
FEC6
F9F1
F8DE
F9D8
FCEE
FC85
F8E2
FB88
FED0
02AC
03C7
028F
0084
0060
0246
03F8
FFEA
0034
02BC
0207
0571
05E2
09F0
03DB
0341
FE9B
FAE1
FF1E
021F
00D1
FBEC
FEE6
FC9A
FC3D
FD88
FCAD
FC59
FEE1
0127
04ED
0692
0347
0251
002A
0180
FEE5
01D3
05DF
04B2
0046
02C8
038A
FDAA
01DB
FFC3
0218
000C
F514
F3AC
F3C0
F8D3
FDAF
FD4A
FD3A
FCDF
FFDF
02EA
0333
04F8
03FB
0268
0076
054E
062A
0510
05CB
00F9
0346
00B6
001D
F8B0
0090
FEE7
0161
FD3F
F0E7
EB3F
EA38
F554
F742
FE83
FD4E
FB3E
FD2B
00CC
0368
00E6
0338
0127
0494
04CC
0606
00CF
FC0E
FDA2
FBDD
FF4D
0380
FF8B
0020
0238
FE72
FEB5
FC9A
F154
F1A2
F92A
F7DC
F90B
F6E4
F9CC
FBA7
FCF7
FFD0
0004
0301
0824
0250
0276
006D
F89A
F8BD
F69A
FA8D
FA45
FE6B
039F
0160
FF3B
FF03
FF21
FD5D
FAE5
FCDE
FEDA
FE03
030B
FE40
0048
021C
03C5
014B
0026
FEDB
01B3
02D3
FFF4
02F5
FB88
FD5A
01FD
03A5
FDAA
0036
FFC8
00DE
0210
FFA4
0104
FF42
004B
012F
0265
FF9F
FED8
017B
03E8
00C0
0659
0D6E
03DF
0397
0A5B
0C07
040C
0104
008F
062D
010D
0086
FF05
007F
00AC
FE3A
0009
021A
00CC
FEE6
0266
FDBF
FE27
0047
0099
0064
FE3C
0234
0241
0319
0123
FE44
FF64
00FD
FE72
0238
FEDF
01A7
FDBF
00CB
FFE9
FF1C
FE34
0214
FFFF
019E
0238
015E
004B
0070
0642
01DA
08C2
096D
0A20
017F
FDAD
FEF7
09E5
0B8A
0FF6
1113
0840
07FA
0653
0626
0895
0532
0076
0015
FE87
0225
FFF0
FE8C
016D
FD20
0003
01E1
0493
0368
07C4
047E
02F3
FA92
0393
0316
06FE
0E4E
12C4
0DE6
08AF
0893
0951
07D5
0718
09FD
FE78
FE85
017D
FD95
FD96
0251
0494
FC95
FE96
FEB3
FEE0
FBB3
FA11
FF9B
FA7D
F6C0
F739
FBBE
FA28
F82F
FBDC
FD00
0263
FFE3
03CA
0500
029D
FDC5
F82F
0187
F963
0127
01A7
FDFD
06B5
0005
FB2A
F595
F7F6
F879
F3D3
F4F5
F60A
F139
F4AA
F3A6
FAAA
F85B
F8DD
FB24
02CF
FD9B
FC2F
02F2
0121
0151
021D
0294
06D2
F98C
0232
0004
0541
FDB0
F969
F782
F46B
F16B
F01D
EE57
F05D
F005
F4EE
F7CF
F742
F74D
F6AA
F5F4
F8C4
FE2F
023C
FDF2
003C
00F4
0524
0EB0
08E4
01D3
0028
F81D
0050
0317
F9F0
F417
F74C
F20C
F1F0
F0B9
F811
F9D1
00D7
0290
0649
038C
0587
00F8
040F
0229
00C9
FFE3
FCBE
05A9
0F23
1613
0E17
0C2B
01F6
F9F7
0207
F93F
F452
F567
F818
F939
FEC4
003A
02AF
06A2
0AD9
0949
097D
07D5
0B43
05CE
037A
0178
03AE
0344
FFF5
0A1F
0E34
13CC
1004
0948
FC38
055B
0365
FBE6
F91C
FC67
FC5A
008E
0497
073F
078A
0A92
0B71
097B
07A0
0475
0176
FF06
01FB
0254
0589
0771
0786
0DBF
10E1
1774
0FC7
04C6
01DE
0366
FFEE
FF40
FC47
024E
0117
087A
0A20
083D
099B
0EA6
0A8A
0A2B
0975
FF6C
FC56
FCEC
052A
05F8
047E
0B54
0667
0B45
1603
1F4C
14DD
03A1
01F6
02B1
01E3
023C
FDF5
086D
0C23
0F90
0A43
097A
0730
0A92
0D67
0A02
09EC
FE87
FBB5
0038
03F5
04AD
04F3
0222
051F
0942
1370
1E18
1560
029B
0263
0486
070D
06F1
09B1
0E02
1090
0B11
091C
04C9
0297
065E
06FC
0960
0928
002C
0092
0488
071A
02B7
FF58
FCC2
FFDF
FEBF
0221
10F3
0E91
068A
FE4C
04B4
0739
06E4
0D66
0E5B
09AE
061F
005D
FDFB
FE20
FCD2
FB2A
0259
0987
03D6
011F
0274
051A
FF5B
FE6D
F70D
F314
EC1A
E7F0
FDFE
071B
0801
0201
037C
066D
066A
0C85
0909
004F
FC64
FED1
FBCC
F774
F8BF
F44D
FE46
0B14
04D1
046C
0263
0085
0156
FEAC
F89A
F14E
E500
E237
F33D
FDB2
0269
0045
FE16
083E
0562
01CF
FF31
F9CE
F694
F6DC
F584
F2F4
F3F1
F540
01DD
0BE2
0722
01E7
010E
0001
FF36
00B7
FC96
F1BF
ED43
ECFA
F565
0534
0315
FD66
FB25
FC12
FACE
F8FA
F928
F748
F30C
F354
F248
F0CF
F467
F8EF
0A38
082C
0067
FF79
FD46
FEC6
F882
F899
F66B
EFBD
EA40
F4C1
F5CB
FA4F
FCFC
F937
FF71
FD0E
F731
FB9F
F6A4
FAAF
F51B
F587
F338
F743
F803
0261
074F
0451
FF19
FD4F
FB62
F9EA
F6B8
F7DC
F663
F186
EE49
F7C9
FAE9
06F7
FA45
FDD7
015E
FDCE
FE60
FA95
FC0C
0112
FC84
FA5E
FCF9
F8EE
FE15
0473
04DF
0382
FFC8
FB24
FA9C
FE4C
FA3B
F9D5
F985
F10B
ECA4
FEED
FFA9
097E
FDEF
059F
FD98
FDC9
FF81
FEEC
FDEB
0456
00D1
FE8B
FFE0
FB03
0489
02DA
0177
0061
FD00
FD12
FD95
FC77
FF79
0011
F8A6
F68C
F624
FED2
06D9
075D
095E
0256
01D8
FE23
FE8F
FBD9
FBCA
008E
003B
035E
011D
FCD9
FE99
0344
01D3
FE56
FFA7
FCE3
FF97
0299
0300
024D
FC45
F9E6
FD5E
0ABB
0DD0
0C98
0721
FF95
FA30
FF07
032D
FA65
FE9F
0019
00A6
04B4
031C
0139
FCDA
FB07
FCF7
FEAE
FDD4
0106
01C9
06D3
06B8
01EE
FD02
01A3
0904
1198
1337
061F
02E8
0124
F77B
F9A6
FCB5
0044
01CB
0162
0108
038C
0539
017D
FE21
FDF4
FC98
00AE
FEF6
0187
0211
043D
0450
FFB0
0202
08F6
0E7D
1438
076A
00F2
010B
0512
FA67
F78F
FC37
05A3
0314
FDB8
FFB3
0180
01EB
0328
00AB
FF6E
FB69
FED4
FC68
0047
004E
0373
FB33
FC79
0118
0845
13BA
1031
09CA
FD9D
FC84
FE8A
0017
FEAA
F950
047F
0398
0144
FCF4
FD9D
0354
06C8
FF8D
0188
FD56
FDC4
FC37
FEEF
0172
FF42
FEB0
FEE9
04CE
0CFE
0DB1
0B55
04A4
FEE4
FECB
0153
FDF9
FCDC
F73B
FDBC
0296
01F4
021F
0198
0413
0502
015C
021E
02EB
01E5
0890
009C
0AC6
0581
02AB
078F
0CFC
0A00
099E
09B0
FD61
0071
00FC
008B
00DE
01CC
048C
05C3
07F9
0BF6
0B79
0C4B
137D
1219
11F6
136C
0FF9
0D74
0CDD
0BC8
0D02
0F9B
0FB3
0BF3
0EAA
0D0F
0566
098F
FFCE
FB4A
0202
FFD4
01FD
00B9
010D
05E6
0468
0A0C
09A1
0CC1
115D
0F56
0E12
10A6
1316
1879
0F24
100D
0EC2
1169
0EA1
0F04
0F94
0A3F
0124
03B5
01E0
FFD0
FD8C
0074
FE46
FE78
0100
FCF4
FBEA
043C
0778
0761
0489
099D
09D1
0CC1
09BA
104F
0C5E
08C7
0421
07FD
038E
03C2
0496
07AD
06EB
FE92
01E6
FEF9
FE22
0263
00BD
FDC8
FDCF
012C
014B
0022
0186
0147
FF0B
FF3A
FE39
05CC
0392
FFDA
019F
FE03
FF47
FD8B
FEFF
FE06
01FD
FDA3
FEDF
00C0
018D
01EE
0224
024B
00BF
0068
FFCA
0085
0085
0A0A
08A1
0CB4
0608
085A
0A8E
0CD7
0A55
0468
0E09
0ABA
07CC
084B
0ED3
0D2E
0887
0C40
05FD
FEB2
00B1
FE6F
005D
FE8C
0018
01C4
0306
05B5
046F
0B50
0C0C
0CB1
0C86
14E0
112D
15C8
15AB
140D
14C7
135C
0F89
0F91
07DF
0DB2
140E
12E1
1204
06EA
04B8
0070
021D
024A
FD94
024A
06EB
03A9
082D
0B4D
112F
0FA6
1230
1097
0F21
1267
1A7E
1379
148B
13CC
1177
0ECA
0B68
0EED
1014
12DC
1264
0FE5
04AA
0270
FE6E
000B
015A
04BE
047C
031D
09D6
1071
0888
0CDE
1063
1132
12F1
1296
0F5A
1116
1056
0F8A
0E4B
0EA5
0B1F
08AB
07D1
003B
F9C7
F6F9
02DE
06C7
02DE
FE56
01EA
0559
0226
0634
0982
0959
0941
06F4
07C0
0605
046A
010D
008D
013D
0165
03B9
0566
027D
03DD
02E4
04AF
FFC8
FC1D
FB1B
015E
053F
FFC9
0238
088D
012A
0F32
09DC
051B
099A
065D
031B
056C
0557
00BC
01A9
FE32
009C
04CA
FE8B
FEDB
0064
FF5F
0012
0149
FB92
FE50
FFC7
FF97
FB8C
0086
0255
050C
FF45
0D09
0D66
08C3
0916
069E
015C
00FF
01D8
0077
0612
0249
01DC
04F3
007E
0055
FD1E
FFB2
FF55
FFA7
FC48
FB6E
FD0A
F80C
FF42
01C2
025B
FFB7
017D
0B06
10FF
09CC
089E
0600
FFC0
0483
03DC
05F3
0528
0489
0405
027C
FD7F
FFE6
FE6C
FE5A
FE8F
FEDB
043F
FC89
FBE7
FB74
0672
062D
0247
0392
084E
0B65
109D
0CA9
06AD
01DA
0298
019E
FE1D
00D8
FEE2
FC1D
00FC
01FE
FCEF
FAE2
FAC3
FDA3
FC41
0126
002B
FFE4
FA64
FE56
056C
00ED
00E3
03DB
0836
0DE7
0D0C
03F7
03FF
0375
FDFC
F9A2
FB9B
F7A5
F332
FA57
FF32
FFCE
F93C
FBAC
FB31
FE1C
0122
02B1
0299
FFD9
F86E
F32B
F985
0321
00E5
05BE
030C
0629
05E7
FC87
F99A
FABA
F73B
F802
F4F7
F215
F1E4
F9C7
0289
F99C
F93C
FA86
FCA8
FCAC
00C5
0374
04F0
0B1A
085E
F8A9
FAFA
0219
011F
04A3
0318
FDE3
FCAB
F418
F11D
F4D5
F410
F61D
F8A9
F4C4
F49C
013A
059B
0043
0060
FE23
FBFF
FCE9
FB4E
FE20
0052
0D23
18D4
0731
FDEF
01BC
020B
FF95
02EF
FC52
F327
EFB4
F175
F133
F583
F5A0
F9D0
F59D
FBF6
0399
052B
024D
021D
0130
FDAA
FC80
FA64
F93B
F9B4
0935
0EEC
FFE0
FD81
F6FE
027A
FFEF
0374
F951
EFE4
F425
F014
F761
F5D7
F97B
F899
FD23
015F
04F7
08B2
040B
FFB4
FF6C
0229
FFD2
FD82
FA91
FB78
00A3
0104
FD7A
0A1E
FB65
0508
03D5
053F
FE3A
F71F
FA66
F9B2
FA9C
FABC
FD41
FD31
0061
0694
0AFC
06D6
0356
FC13
FA2B
0126
FF62
0341
016C
025E
0110
FF03
0779
051A
0717
01EB
023E
05B6
078C
010B
FE5A
FDD5
FE8B
FFAC
03B7
02F1
066A
08BD
0AE8
03CC
FDA4
FB0C
F868
FD1B
0038
FF53
031F
0257
0448
05FF
0AD0
0973
FF47
013E
01E8
0500
0DCC
0206
FB75
FBEF
FC47
0066
045B
046C
0794
0482
05FC
0099
FAAD
FC8A
F860
F88C
008E
00BE
00F4
0557
0787
06A5
07E6
0376
0263
048C
0544
0356
08CF
0359
FD5F
FA5A
011D
0910
076A
08FD
056A
07B8
FEEC
FD52
FDF4
FDFA
0111
01AB
FEE4
00EF
04D1
08F7
0A72
0802
06D6
016C
0337
FE99
02E8
0697
0451
0168
FF45
0018
012D
0525
0BFA
0B1D
0946
084C
041C
FE81
0253
02FC
06F1
043C
0460
064E
069B
07DC
0C77
01EA
08C0
FF70
0341
0134
FC3C
052C
0648
036D
FEAD
0499
0B05
073B
0A64
07F3
0586
072F
07A8
08A0
0590
01BC
04FB
043A
0481
0A9A
0416
02DB
0166
FF84
FF5B
FF79
FE77
FF32
0366
079E
08FC
FB75
01F4
0733
07BF
02C9
0456
044D
03C7
06E1
0748
088C
0602
069A
0662
0646
06EB
02AD
FF51
FB69
FB7D
FB2F
0062
04F2
FDE7
FD52
0322
0580
08AE
0171
038B
0422
0269
03B5
0297
01E1
007D
0283
02F2
0432
047E
05D9
FF7C
FF25
0066
FB6C
F892
F6E5
F85D
F7E2
0257
014E
FF93
FEC2
0040
0349
075F
0707
018F
036C
0122
FF6B
014F
0165
FFC0
02EF
056E
0362
0373
004F
FF05
FD77
FBA9
F701
F65A
F645
FA7E
FF14
FC6E
01B8
FE27
0199
FE95
02EB
049E
02F5
0374
014C
00D3
019E
021D
00CB
0593
054A
024D
0281
006B
FF8E
FC87
FA66
F71E
F353
F898
F624
F6F2
01A6
00B9
036C
01FB
FF56
020F
FE74
FE39
FBCE
FB49
01DD
019C
0169
06D2
0810
087F
0659
FF92
0103
01AE
059E
02E6
FF22
FDC9
F911
F548
F7CA
F928
FDCE
00C3
05E9
007F
0231
FE7F
FDB0
FE6F
FDC0
FE23
FF30
0693
01E1
FEB1
0149
FF91
FD15
FD2A
FFD8
010B
FC8F
0072
FEE5
00C4
FF56
FB42
FC23
FFA9
FDA9
0109
00E1
023B
001F
FDF6
022A
0225
038A
0628
052B
0321
0369
049C
05EC
0632
0007
0210
0339
0309
0895
06C8
0004
FEAA
FEBC
000B
F9C7
0295
01E0
FE49
FDF3
01A2
FE62
0180
0126
FFC2
00DB
FE2E
0025
0204
FFCD
004C
FE02
FD88
02E5
0248
FF49
FE30
FF3C
00C7
FD9E
FF62
FF2D
FEB4
0086
FE13
0138
00FF
0047
FF15
FDA1
0048
01D8
0145
00F2
058F
0A0B
0B3E
0184
0415
0A82
12B0
116A
0FB7
0569
0790
FC43
0284
0AD4
0EC7
0D34
0E60
0D5A
085C
FEAB
0085
FE1E
014A
FFB5
0210
0318
04DA
04C2
06B0
0A3E
0D4B
04E8
06DC
09FD
0A76
0584
FF5E
0483
035B
FDA0
0362
063E
036D
034D
088D
0A21
0005
FB82
FAB0
0046
00A9
008D
FED6
01C5
077A
08CB
0559
0445
0A9B
0A8A
FF6D
FFAE
0622
0493
05F8
01C9
05E3
019A
0233
01DA
F91A
FAA9
FB9E
FEDC
0259
FCFE
F98D
FEB4
01D8
021E
012D
05E6
04B6
08F9
06D7
06BC
0587
0835
03FD
0443
0187
0107
065A
021B
017A
FCE0
FA59
FAF3
F9DD
FA8D
FB3A
F7F2
FC5C
FCAD
FBB0
0415
0204
FF54
0080
0361
02F8
06C6
03E9
0085
02C6
021F
FC6F
FFDC
FF59
01FA
05A7
078E
05D1
FD9D
FB3D
F93A
FC91
FAA0
F903
F94E
F868
F7CF
FEC3
02D3
FCF8
FE05
FBB5
FB63
0A1B
013C
FA64
FDEA
FDDE
FC46
FFFF
FF88
03CB
0360
08E1
081F
0A1F
0407
036C
FDBB
FEA2
00A4
FC91
F577
F7E2
F760
FE71
FD6D
FE3C
FDBF
FA9B
FB92
0410
029D
FC0F
FBAA
005F
FDFB
FE7E
FFCE
FE7E
0569
04E3
066D
07DE
02DD
0154
FE9C
FEFA
FF0C
FFDB
F927
FA7D
F7E6
F7DA
FE1B
FEB8
FCE1
FC94
F4F4
FE3A
FBB1
FF25
0145
00E3
0101
FCA1
FED7
FD19
FEA7
0203
02BE
0238
028B
0102
0495
029F
0028
021E
FB43
F6D0
F5A2
F72E
FC40
008F
FD28
FE91
F69A
FBDD
F881
FC62
FF9F
00F0
FF47
FC01
FC72
FAE8
FA2E
FFE0
028B
050E
04BE
01AD
FFD0
00C6
0309
FDD6
FAF5
F6F7
EFEB
F217
F7FA
FD9D
0145
FE68
F308
FDCF
F843
FDF8
FDD4
024A
FE8D
FA1B
F9BE
FA59
FAB1
FF28
0470
0395
04DE
01AE
010B
02A4
03DF
0209
FE3C
FA93
EC2F
E52A
F10A
FD24
FE12
FAC1
F1D5
FAAA
F77F
00A7
035B
033F
0239
00E4
020A
00C1
FC95
06CC
05CE
060E
03ED
0547
0635
0965
09F8
0BB9
0B8B
0868
0200
ECF2
F86F
FDB2
0104
FA54
F4AC
F58B
0186
05A7
0712
02B9
0009
0263
0044
FDE4
FF1C
058B
0AF0
0C86
06B5
081A
0A80
069E
0C6B
114A
1BA4
2515
18A8
F869
F673
FB5E
0286
FF20
F427
FC68
036F
03FB
03CB
01CB
012A
0158
FC0F
F8B4
FAAA
0603
0DC1
0AA3
0759
064C
03AE
0393
0204
074A
0D97
1AE9
0F84
F69C
F4CE
F85E
FA36
0232
F511
026F
02AE
FFAC
0170
0062
FD89
FBDF
F9C8
FD77
FFE4
0A3C
0B94
0800
0188
01AC
FD88
FC4E
FC25
01D6
0393
060B
0503
FD4A
F646
FA66
FB1A
03CA
FD3F
FC35
FFFC
005D
0266
FFFF
FECF
FEC0
FF23
FF57
02E3
07D5
0979
FE9D
FA62
FA5C
FAC1
F4D6
F71F
FCEB
0232
04C1
FE26
F9D8
F319
F6B2
0733
0460
0280
FC11
FD7E
006E
00DA
0343
0281
0241
029A
05B7
02A8
0786
02AD
FB3F
F6B0
F75B
F99E
F77A
F357
F938
FB4C
014E
FA3B
F53F
F22F
F4ED
01F4
0681
0445
FD78
FD7F
FA6F
F986
FD26
FF13
03EA
03FA
02E6
04C0
0119
FE5A
F45D
F58D
FB18
F7CE
FAF8
F9E1
F8FC
FF41
FF06
F65A
EE9D
F369
FC61
02D3
0642
08F4
FF83
FB92
FB73
F962
FEA0
020B
05C1
09B8
04A4
02FE
FDF4
FA80
F5DF
F6A6
F960
F9C9
FDC4
FDE2
FA57
FD0A
FB77
F358
F274
F72C
F993
FEEB
00EF
07D6
FF5C
F8A6
FADF
F988
FDDC
FDDA
FFAA
0823
05D6
0372
FD24
FBB7
F7F9
FDB9
FD24
FD67
01D6
FFE4
0073
FDD5
FCB0
F3F5
F0E5
F780
FC99
FFE2
05A6
03BB
F7B2
F9A6
F972
FEED
FF7C
FFBA
0012
017B
FE5A
0210
00C6
01B4
01CD
FF35
007D
0082
FFB8
0231
FDFB
FBCB
F4F5
F557
F88D
F99E
010E
FFAD
04AC
FEFB
FC18
F848
F9E8
FCA7
0051
0038
FE52
FF95
FE57
FF4F
04D4
057B
01CD
0142
FE6E
FE81
FD6E
FFF6
FC51
FAB7
F2A2
F7CA
FC3E
FB0E
0354
0154
0552
013E
FEB5
FA76
FA1A
0191
019A
FF82
FCA4
FFEC
FF49
FDBA
0224
05B7
04D7
01D6
0055
FD62
FCEA
FE01
F993
F96D
F9BA
FE68
FB05
F9DC
0115
00B7
FFE9
06DF
0922
FC98
0195
021A
FF7D
FFE2
FB78
0041
FC50
FFD8
0282
0239
06B3
0667
062D
0372
FF44
FD0E
F9E6
FBB6
FFBB
00B8
FD1F
F57C
025E
008B
0057
0093
0A48
0611
0697
05F9
003B
FE28
FAA4
016B
FF0F
043B
02D2
001B
0221
0575
03DE
FEE7
0389
01A9
FF4C
00B0
05F0
FA1D
FA58
FF15
FE57
FF4B
0165
01CB
FCAA
FD86
055D
0801
025A
FF36
FC21
0062
00E5
FE3B
FC7E
FC78
FFB5
FD3E
0149
027B
06B8
0C5B
0638
017D
038E
0020
FD4C
FC1A
01DD
01CA
00B3
FF2F
FE96
0584
0429
07CD
00B9
FF7F
0115
008E
018F
FF6A
FD12
072A
FF49
00BA
0080
0020
FF3C
0561
02A7
F9F4
014E
02F3
FE9A
004B
0029
01C4
00E0
FEB9
004A
FC91
FCE0
0099
00D0
02FE
009A
FD05
FF22
011F
F274
049B
0102
FA32
F7EF
FABE
FC74
FEAC
FE07
F8C4
F8FF
025E
FE3E
0133
005A
0044
0043
FFF5
FEE4
012D
0092
0142
0027
FE2E
00C7
FDA4
026F
0319
0172
01B0
0025
01B8
FF62
FDCB
0135
01A8
FFB3
01AC
021C
0188
FE5C
FDCE
FF64
01F0
FDC8
FE5A
00B4
0263
0422
082C
0D05
0BFC
08DD
0E22
0654
031D
0715
0230
0EEA
0757
0855
0C7A
0E1E
0EBA
0759
07ED
06A1
020A
FEF4
FEFF
0157
FD88
FE61
FFA6
022F
03F6
0434
0CE5
0F6E
0EA8
1453
1B07
1464
1606
1AC2
1B62
1C8E
1798
10BB
0CBE
0E57
0B4D
0E1F
0E0C
0D6D
069B
03D8
FE8D
022D
01B6
01F0
02D3
056D
07F9
07DE
0EA1
12E7
0EBD
1EE1
221A
1E77
1C5B
1D01
17F0
159F
1AB6
1A81
1552
16AF
1494
0762
0767
018B
011C
FE03
04B8
0053
FFF5
FF94
02B5
06B5
0991
0DB1
0E15
02B5
05D7
09D1
0D02
065B
06C2
0394
0375
0136
025B
FDD7
00B5
05E5
071B
05E4
0891
0C1D
FF36
F5EB
F8D0
01EB
FE6E
FF2D
0470
0BA8
10CD
0D4F
06C5
0515
041D
03F4
0993
08C8
086A
0595
056F
066D
00E9
FE2D
FB52
004C
03FF
083D
0A6B
0D16
0F26
009B
FEA4
0665
FE25
02ED
0619
0DD2
14E5
0FF4
05E7
FFD7
FF82
FDB6
0318
0464
031B
0019
FF59
FE06
FC44
F8FA
FD7D
FDF2
FCC3
FE6B
0189
02C9
07DE
04CE
FEB7
05C7
FEE2
052D
04F8
0F00
15A4
131A
0449
FD8B
F83E
F822
FCD0
FB28
FB72
F6C9
FCF9
FC10
F91C
FAE6
FA0D
FA1E
F957
F852
FBC9
F663
F49A
F6C9
02F6
0465
054A
0039
0412
0D4E
11B3
0D7C
0311
FC4B
F54C
F28A
F377
F3CD
F3CB
F8A6
FC72
FFB5
FB67
FD4C
F9CC
F98F
F5C3
F33A
F5AB
EAE6
EB88
F575
03CE
FFD6
01EF
FD56
00AB
02C9
0AF1
00A5
F7C1
F721
EFBD
EBAF
EB60
EFF9
F05A
F726
FD5A
05B3
03BB
FDCD
FA33
F63D
F734
F613
F5A7
F10D
EEB2
FC59
01E5
0031
01A2
010B
0104
043D
0248
F55B
F2BB
F067
EDEB
EB52
F000
F3EB
F3AE
FCBC
0186
06DB
019C
FDCD
F967
F60C
F920
F5A6
F4E0
F7CF
F670
F895
F87D
00B4
005C
06D4
000D
01D5
FCAA
F669
F2C7
F32D
F109
F031
F3C6
F9C7
0016
01F1
0574
03E2
03A9
FC91
F9D5
FACA
F9EC
F838
FB11
FE16
FB38
F969
F726
08C1
FF29
0609
FAE1
FBB4
FBD0
F8E4
F842
F63B
FACC
FCBF
FEB0
0293
05C6
05F5
0797
03E0
0731
018E
FDE0
F8BE
F4F9
FA78
04B8
075F
0594
036C
F9F7
06AA
0412
028D
F943
00A7
FC19
FD4E
FFA2
FA1C
017B
0400
04B0
FF47
0333
02F2
0A12
0483
03F8
FE82
FB51
F6E2
FAE0
0001
0599
0881
05D7
0651
F82C
FDC9
0357
03E2
0276
00D9
FA0B
FDFD
07F6
085E
0861
032B
FF79
FE79
FFB6
040D
09BB
01EA
FEBF
FA76
FC2B
FEA2
FE8C
02EA
05CC
053C
05BC
0ACA
FF4D
FD8D
05E8
06B8
09A9
FF4C
FCE8
0727
0D80
087D
03F0
FD9D
F9D7
F9AD
FE15
0730
07D9
00BA
FB77
FA0D
FF02
022D
04DB
03FA
029E
0153
098D
1013
FCD1
F945
0136
0687
0AF0
FBA2
FBFA
FEEA
01D2
03FD
F8E8
FBA2
FB8D
FB9C
FBBC
0845
09B4
FF5D
F761
F3E3
0120
055B
02B1
048B
01EB
0696
0B6E
0C11
FBF6
F6C2
FF0A
09B6
035C
008D
FB4D
FD53
FBE0
FA0B
F92F
F9C0
0226
FD73
0121
04F5
05AC
FC49
F78E
F659
FE2D
03BB
02D1
01C4
0144
0122
01B2
09F0
FE62
FAA2
FD8A
05DE
050F
05FC
026D
0034
F883
FED4
FF7B
0139
0101
050D
093A
07DC
05F6
0092
0375
0381
0821
0334
02B5
0671
0395
FFB2
0452
0A0A
08A2
056B
0128
FCF8
017F
0E05
0AF7
FFFA
00A9
04B1
0772
0509
0753
0837
0974
05C1
06C8
06DE
0A47
0B55
0BAA
0409
04FA
05C3
0477
03A1
0096
0D9B
0537
037A
0267
FB6A
04A5
1076
0E3C
05D4
0547
06EC
0B88
0711
0907
0861
07B0
05EC
09C8
08B2
0A3A
0CA4
0D61
0845
04BB
005C
FD3E
0070
0664
08AC
0771
0319
04E0
0745
0BD9
0F72
0CA0
0A49
0797
065E
06C7
07E0
08F8
00AA
00C3
0110
072F
0A38
0BCC
0A29
0DE7
0497
FDAB
F916
FADB
0156
0C86
0769
023A
017D
06CB
05E6
10BF
106F
0BA4
0BBC
06AC
042E
040D
0228
026F
FA64
F76E
FCBF
FC3A
0348
068B
05AF
051D
01E8
FA87
FA3B
F7EB
FFA2
0A9F
02F0
0539
FFAC
0246
00EA
0C25
13C7
0BFC
0D77
07AD
0260
02D3
0214
FFEC
FC68
FCAE
F7A8
FDA5
FDC8
004B
FFC1
00CC
FFF4
FA48
FA25
FE0B
003B
0776
0507
069C
0029
00B1
024B
0355
08E5
010D
0509
026E
FFDE
FC71
FEA7
0454
047A
0507
0111
FFC5
FFB0
FBAF
022E
FE83
FB26
F3AE
FBE4
FF2F
FDB3
FCFF
0975
0639
FE7F
020F
019B
03B8
FBC8
F919
F473
F553
EFCB
F515
F5FB
EF8E
F09A
F1F2
EC06
EA03
EAD3
EAA6
F291
FD0B
FF85
FC5A
F6D6
F713
FC6E
F962
01B4
039D
FF35
FE7A
0275
01A8
03F4
FD09
FEAD
FCCB
FC32
FE16
FE1C
F728
FA7E
F979
F4D3
F4D5
F25B
FB2C
FF66
F7F9
F93D
FF8B
FEFB
FB84
042D
0100
FF2D
0083
FD8E
0258
FF51
0103
FF33
023B
0215
0019
FB60
FBB7
FE4B
F93D
FE6A
FDF8
FB51
FA66
FE0B
FCFF
F8ED
FA67
FB7F
FE6D
0003
FF29
0108
FE03
0116
FE11
FFAA
FFA0
FE85
0191
FEF4
01DF
0205
FF5C
0201
FDED
FF8A
FE37
FD8A
FB3F
FBB2
FDA2
FD0B
FE2A
FEC6
01A3
0001
0068
FF8A
00FB
FE6B
FFE4
00A0
004D
007B
FF46
FE81
0051
FEC4
FDA6
FC59
FD10
FE5D
FBF4
019A
FB16
FCAE
FD49
0092
0223
FB4E
FDCC
FAE8
F97A
FA25
FAD0
FBA8
F675
FB32
01A8
FE80
FF5F
FFD2
FFE7
FF9C
005C
0281
FB4B
FE30
F550
F587
FBBD
F80E
F6CA
F62C
F2D0
F738
F6E6
F5A0
F4F2
F867
F5CB
F60B
F991
FD00
FEB9
FB8D
FB44
FD6C
00D3
FF46
00E7
FFB1
FEA7
0170
FAAE
FA5E
F97C
F2B2
F4E1
F65D
F982
F659
F161
F39C
F043
F138
F320
FC5E
FE63
FF0D
FCF6
0127
068B
04EA
FE1B
FA10
F84B
FDE2
0205
FFB6
06C9
04E3
FA55
F864
F479
F2CE
F42A
F55F
F68C
F885
F934
FBAC
FDB7
0180
FE09
FF8F
FE59
FF68
0264
0494
0259
FF91
FE01
F7F7
04DF
00C7
006C
FEBF
02AD
0491
F8BA
F895
F4BA
F978
F5D6
FD8A
F94F
FDB9
FD36
0057
FE32
017B
01AC
00EC
FF77
0206
FF5C
00EF
0361
FCA9
FC2C
FCF5
0082
FD2F
0196
FF56
FF7D
FBB4
FC9B
FEC9
FA10
FA83
FA3D
FC33
FD53
0059
FD7F
FE80
FB3B
FD2C
FEB7
00AB
02A6
0353
0179
02E4
0674
04AE
FC7D
F8D3
FA11
FF0E
0298
FB5E
0433
010E
0142
007C
FCD2
FD92
FD9B
FF41
FEB1
FC10
FDF1
FC8C
FBF7
FD1A
FEAE
02B3
0217
04A4
FFB4
FE83
0189
0895
FF0A
F915
FCFF
FE3C
03A8
F7D9
0326
03A3
030F
0215
01ED
0074
FD73
012D
FD59
FC57
0030
FD71
FD1B
FA05
FF69
0614
025C
0293
FFED
0070
FF50
0231
00DA
F50C
F972
004C
FB48
F9A5
FD75
FC65
FB9B
FEA0
FDB5
FEFA
FF46
028F
0021
0163
01D8
02F8
FB73
F77F
0015
03D2
0387
0329
FFA3
FD1E
FED9
00D1
F72E
ED74
F8E9
FC91
FC1C
FEDF
FA9F
FBAE
FC95
FF2E
FE31
00F4
0283
045A
065C
0714
06C0
02AE
014D
FACC
009B
035C
030D
0678
0439
012C
0880
01EB
F3E4
E9EF
F3C5
00DE
0134
FB58
F72B
FBA1
FCD1
0348
067B
0822
05E5
05B2
082D
0910
0666
0766
04B6
009A
016A
0085
01E9
024F
05B8
0B05
0E22
0C77
03F1
F281
FAC1
FE4F
FF5B
FC4A
F909
FD0C
034B
0A4B
0B38
06E0
05A9
05B0
02B9
02B2
065E
0688
02EB
FDEE
FFFA
0207
FE3D
02C7
06EC
0D2D
0E98
1589
0F39
F7B9
F8F6
F88D
00A1
FAE3
F9CA
FA01
01BB
0A8D
09B2
0AF2
0607
03A2
FF6B
033F
039F
020D
003D
FD94
FFA3
FE8C
00AD
FE86
0325
047D
06A5
0B4A
0788
F788
F508
FADF
0061
FCCC
F775
F5A2
0548
0845
0677
0749
0253
FE1F
FF3E
03A3
02CD
01B7
FCCD
0061
FF05
0110
0079
01F5
FF99
FF87
FCA8
0237
0229
F9E2
F5D0
F96D
042B
002A
FCCA
F852
060C
0693
049B
07C3
0411
007D
01C2
0069
005A
01D1
FE9B
006F
FD1C
FE7A
FE57
FD48
FE73
001E
FBC8
FAF2
FAF1
F7E0
F635
F9DF
0779
FF23
FDA4
F624
FB4D
0254
02C2
0841
0920
0692
05B1
0591
02C1
FEA6
FE49
FE8E
00FF
0178
FE8F
FB95
FB9A
0017
FAD5
F926
F60E
F463
F338
FC06
FE47
00AD
FC22
F422
F7BB
FB1F
FC9D
02DD
07A3
0AC4
074A
068F
042C
FD71
FCB0
F97E
0008
FC9D
FCD4
FC9A
FE3C
FBFC
F93E
FDA8
F703
F0D0
F420
00B5
FB37
0244
FE6C
F66D
F416
F6A6
F7A0
FE43
0568
0950
0905
0689
034F
F903
F7C8
F9B0
FA0C
F65F
FA6C
FBE5
FBEC
FBCE
FCB8
FDFB
FB3F
F167
FE11
FA9E
03E0
04B6
01D8
F60C
F40F
FDC9
FA0A
FD2E
0065
0356
023C
FD7C
FAC4
F6CF
F97C
FDDA
FB5E
F9BB
FBEC
FB57
FC12
FF80
FE7A
FF18
F907
F640
FED9
FAD1
FF84
072E
040E
F848
F382
FF64
0028
00FF
FBA7
FC01
0160
00BE
00E4
FADB
F99F
FF00
FBA0
FC66
F97F
FBD7
FB04
FF1F
FCDE
FA62
F8E2
F827
FDBA
00BE
0409
003B
FF5E
FD4F
F893
0136
00E1
0255
FC6C
0230
0398
0193
0306
FE8B
FFDE
FD26
FB43
FA8E
FBAE
FB0F
FCC3
0099
FF59
F8E4
F5FD
FE16
02C3
FFAD
0298
0186
FBEB
FF9F
F7EE
019A
03CE
0109
00A6
02C7
029C
0287
02F7
05CF
03BB
001A
FCD4
FCE4
FEC5
FC18
FEEF
0088
FB7C
F6E3
F823
FF1F
01AD
0201
0154
0156
FE6F
FD6B
F7F2
FB75
FE43
FE83
02C2
0205
0384
0652
0719
0984
04F9
0361
0399
0051
0109
FBC1
01DB
FE81
FE32
FAA9
F874
015C
F954
FEF1
FEA6
0044
FCAF
F4FE
EE30
F717
F777
F581
FAAF
FF3A
FE40
01AF
055B
02D0
03B6
0444
0253
FE90
008E
022D
012E
FECF
FD42
FA11
F7A8
FD40
FDC4
FD8F
00B3
022D
FD6D
0038
EF7A
ECCC
F47A
EECF
EF82
F107
F804
F703
F60A
FD13
FE7D
FE23
FA86
F82A
F6B2
F641
F973
F543
FBB7
FB24
F625
FE4B
FD3F
01B2
FE54
01D7
01B1
FDC8
FCB7
F740
F45C
F75F
F494
F1DA
F3FA
F658
F7C2
F3F5
EF73
EC08
EEE9
F16C
F161
F6B1
F43C
F2B0
F9CD
FF6A
FEF1
FEC3
013C
0003
0028
0221
FE30
FE2A
00D6
FEC8
F996
F9AF
F715
F723
F4C0
FA14
F84B
FBB2
F2FD
F56D
F497
F810
F806
FA4F
FCA9
FC2C
FD9F
FF4F
FD93
FD93
011C
002B
FF8B
0081
FF0B
0025
FDE9
FED8
0204
FF5C
0140
0264
FD96
FFE2
01E0
FFC2
FE5F
FBA3
FD99
01E7
FE93
FF27
FFB6
002E
017B
FE52
FF1D
FDB5
FD9F
011E
002D
FF89
FFB1
FE8F
FF10
00A6
0148
053A
0376
083C
0580
0AC5
0AAB
05AF
08D3
085B
006A
0479
0489
08A3
09BD
0398
042B
0535
FEDE
016D
01EC
0069
FED0
0038
0053
020E
031C
00F3
02D9
0628
FEF0
FD6E
0614
0A89
0B2A
0EFE
0BF6
0A24
0817
037D
08CE
0E85
0722
04D4
058D
0215
FA9B
FBCB
01CC
FE1A
FFF5
FDA0
FD9B
0167
02A4
0290
FE5B
FE79
FFAC
FF41
0272
0546
0881
0B2E
0D5F
0DB5
0C51
0F80
0C53
08E6
095F
09C2
0544
02EF
FE09
FDD5
FFE5
01CB
00F1
FFBB
F9ED
FFA8
0617
FC70
FAA7
022B
FFA2
FAB6
FCFF
008C
0367
05F5
0734
08A2
0610
090F
05D5
09EB
04EF
0472
0B99
0F0C
06A7
FE5F
FE55
FDD3
FF33
FE65
FA5A
00EF
0080
FD68
FE14
FC3D
F8C5
FBC1
FF6D
FDFF
FEFB
FFD6
0186
040A
FF64
FF5A
0182
0409
05F8
047B
076F
0AB4
0595
FBB0
FFE4
FD2D
FDE3
0271
F6D9
FE6C
FF5A
FB42
FDDD
FB5A
FC2B
FC74
FF8F
FC9E
FDCB
FF0F
0081
FE2C
FF11
FCFD
FD02
FD8A
02F9
0453
04CB
09C4
0952
0601
033E
FBC5
FF7E
FE36
F906
FEB9
0117
00AB
FC06
FC9D
F9F6
FBA0
FCF0
FC67
FC11
FBBB
0113
01E3
0139
0552
0057
FDF9
FDE0
FE78
02A2
0BBE
0E10
0A58
05BA
FE56
06E8
FAA7
F934
FED5
FF30
FE69
FDB9
F9E8
FA21
FA2B
F920
FB71
F946
F981
FE7D
0255
FEE0
FE4C
FFB2
FF60
0234
0394
03C5
0B0D
0E94
0B30
0638
002E
FBCD
F6D9
0018
FF91
01FA
FD33
FD06
FEAD
FDD3
FC46
FA83
FCBD
FBA8
F98E
FC8A
FCDD
FE6C
FD98
0305
0125
024B
03F8
045D
052F
0ECB
0C18
0653
01F9
FD6C
FE33
F962
0278
FFF4
FA3E
FCFE
018A
011E
012B
FF0D
0051
FFEF
02C4
02F7
014B
FDDC
FE99
FF6D
02DF
0262
0419
0088
0720
0EF6
07F3
07E1
FF31
F73A
FEFF
F9B8
017A
FCE9
FF75
0598
06DE
04CA
027C
0570
0309
04D5
0726
082B
01B2
FCA5
00D2
03D1
0319
01DC
0207
0081
037D
03D3
01C5
037E
03C7
FE6F
FC52
FBF2
FC86
FF8E
0A62
1009
0D53
0994
0969
0F18
0C9A
0E8A
0D66
0CB3
02C7
0365
01C0
056C
0357
019A
FE80
0096
044E
FF4D
F724
FCAC
FFD8
0394
FEDB
FCCE
FDDE
078B
125C
144B
11E0
0F0C
0D52
0C46
0F5E
1211
0DC4
090A
043D
040C
049C
033D
01EE
FD20
FED1
017E
0262
FEF4
F4D1
EC88
F814
FDBF
018C
FCC3
0264
0876
124C
0F3C
10D0
0A97
0D38
0926
0CA4
0E24
073C
04DA
0533
03DC
0007
FE49
FF37
FD2B
FF17
0044
01AC
FE11
F526
F1A2
F7F0
FFA7
06A4
FFD8
0357
05D3
0A5F
0D2E
0B9F
071B
0974
0BBA
0C84
0770
FDAB
FF29
02BB
FFD5
FEE4
FDA8
0033
008C
0057
0127
01A9
FBB5
F7D4
F17F
F7C7
FDD4
018A
02FD
01EA
04D9
0967
060B
02F2
044A
03A4
0611
035B
F75A
F90F
FD64
FC43
FDD7
FB7B
0207
040F
027F
FFD8
FF5D
FFA8
FAAE
F410
ECF9
F9B7
FFA1
046D
FDD9
0280
00DF
076C
0582
0159
FFD2
009C
025C
FADD
F206
F4F0
FBA4
FB1E
02C9
FED8
01AA
0455
03C3
01CD
01CB
FC68
F97F
F2A1
F1A2
F8D0
FBFD
02D9
0645
018E
0487
0415
0497
FFFD
0494
0097
FC59
F3FB
F167
F650
FAD2
FE55
03FF
01DD
02C0
07E7
0536
05FB
0454
FE35
F7FB
F2D7
FAF2
0028
0076
FF85
0319
013F
00EA
00EC
02FC
05E6
0169
FFFD
FE67
FB0F
F972
FA86
007F
009E
01B7
0211
015D
06AF
04CF
0783
05DB
FE71
F345
F3FE
FC27
01BA
FE31
079A
025B
FDFE
FC1B
0327
0244
FFAC
015D
0022
FC8C
FAEE
FCFC
0162
0419
0017
0297
045F
0641
01FF
0506
0107
FF28
F9CB
F790
F769
FC6B
0046
0480
04D2
FCA0
FD36
FF7D
0307
FEB9
0409
0216
FCF6
FED0
0092
FEE9
0054
FE42
0379
02E5
01E7
FECC
00CF
0204
FE4D
FEF8
FB85
F9E4
FAF5
00F7
009C
02B0
029C
FD04
FF4B
FA86
FC62
FCE3
FF7E
FF7E
011B
0221
0096
FEDF
025C
FE34
0227
04F9
0443
FF54
0147
FEBF
FDC5
FDF2
F966
F923
FBC9
044F
00B9
FEB6
00A3
07CD
0872
FD26
FC8C
FB83
FEFD
FF5E
012D
FF59
0286
030E
0548
0459
0724
0630
055E
0225
FD81
FFBA
FE51
0056
F7E3
FEC2
FBB8
0508
00BB
FF07
01DE
019A
099D
014E
FD57
02E1
05D0
0581
0AA6
074E
0621
06E0
0561
06A9
0865
0671
0567
006E
FEA4
FC29
FE6B
072F
013E
FC05
FB5F
FE11
FDF7
00B9
FE6B
038B
039D
027A
0044
0447
05A2
090D
09CD
0534
0435
069D
05BA
044E
007D
0446
0531
FEB6
FDC4
01DF
01BD
0642
0648
0303
FE52
FB64
FE0D
0071
FF5F
0220
04DB
0656
FCDA
0021
FFDA
FE96
FE31
FD32
FC17
00FD
0373
0237
0053
013C
0074
FE4C
FE09
0293
FC6C
FD8E
043F
FD62
FD07
FE19
006D
FDF9
0210
FFD5
FE85
FCB5
FA9A
FAF1
FBC4
FD27
FC33
F7DE
F336
F7BC
F7AE
FB1B
F4E5
F5E3
F8B1
FB28
FBA1
FB5D
FAAC
FA6F
FD07
FF1D
FED5
FFDA
FEA3
FFA2
004D
FE03
0208
012B
FDCE
FF8E
0045
FD90
FE66
0265
0260
0029
00EC
034D
0127
01EF
01E0
01DB
FEAC
0205
FE7E
0214
020C
FE06
FDF3
FE68
022C
025E
FD93
0190
000F
017A
0113
06A4
02AF
054C
FF15
004E
01A7
FF8A
FD3B
FBAF
033A
0CEA
0A2B
01B5
00D2
FC8C
FE20
01AB
0280
0003
FFE7
FED8
FDA8
013F
0079
031B
FD91
FF7D
FEEC
0270
0452
02AF
0244
01A7
047D
06A6
0430
09AD
0B4B
0E1E
08B8
03C2
FEF0
FD0B
FBC1
FD74
FEAF
03B9
0733
00A1
0039
FDDB
00A3
0688
FEAB
0225
0221
09D2
0B57
0633
0910
0CB8
0BA8
04E0
0445
0474
030D
079D
0284
0109
040C
028B
032E
FD69
0165
0445
0589
FCD9
000C
00F4
FD4A
075B
019C
FC54
0562
0687
025D
061A
08EC
0660
0644
038A
0109
0612
FFAE
02EC
0328
02D3
025D
024D
0048
F9B1
FBE2
027F
0D32
052E
FE1B
FF2B
00E8
0744
0155
FDF6
00C5
0188
02ED
02C9
026E
030C
06D7
0405
048B
FFD2
0116
0553
0313
025A
005E
0291
FF8A
FE9C
FBFE
FEAF
0DF6
0628
FF66
018F
FE33
0306
FDE2
FCBB
F913
FDF2
0138
0587
03B3
050C
05A4
076C
068C
0910
0B75
0B39
0B65
0822
026E
0021
FF2E
FB84
FAC5
FCF6
0885
02DA
0566
00E4
FDEE
058D
FA60
000F
FBA2
03A9
01D2
049A
06D7
0446
0300
0655
0927
0DDF
1220
10E2
0A7B
08C7
0089
0175
FD4E
F79B
F944
FF75
FE00
FAD3
0223
00A0
0179
FB52
FE26
0058
00D4
0209
036D
0800
053C
062B
071F
098B
0CE1
0DC5
0B65
0432
FF29
004C
015F
FFFF
FF9F
FCBF
FBB9
FD4F
FFFB
FEEC
0399
FF33
FF02
FA8F
FFD6
0139
0382
045E
01FB
021A
0522
056D
0233
0300
009B
FCEB
FCD2
F731
FAAA
FF9A
FEFA
FF3B
FE11
FE3B
FDF6
FE5B
0768
07DE
0230
020D
FFEB
FAB3
FF82
FE9E
0362
0212
FBF0
FF60
FD88
FEAF
FBE7
F6F6
EFAA
F3C2
F152
F709
FD24
FFEA
FF98
00E5
FFDB
FF9C
0320
00B3
0501
0B3E
059D
FD91
FE63
FADE
F9B4
00D8
0213
FC10
F832
F5D8
F498
F666
F561
EF5E
F06B
F508
FA9C
01AF
00B2
01AF
0013
0184
01D7
042F
05E4
08A1
0AD8
0D41
FEF1
FE2E
FCE5
FA53
FA0B
FECE
F8C0
F5C4
F3C8
F34B
F504
F193
F36D
EEFA
FA86
03C8
047E
012E
00B3
FEEF
028A
0440
FCD5
FC40
FD78
037F
06BB
06F7
004A
FFA4
FBA1
FC5D
FD0F
F9BD
F429
F09D
F6C9
F6B2
F897
F59C
F54E
FAF6
0804
09A4
0568
060F
04AD
04F2
FCAA
FCE4
F998
F56D
F4F1
F9DA
FAAE
09E3
0465
FBC0
F942
FB6E
FD53
F797
F70D
F4AD
F80C
F86C
FC0F
FA00
FBBB
006C
0A69
08FB
0590
0368
018B
0033
FD30
FD78
F920
F273
F111
F2FA
F752
0CDE
01B5
FC59
FE1B
F5C1
038E
FD8E
F954
F8B5
FAA1
FB6A
FC11
FC00
FA9C
0079
05FD
053D
04D5
01CC
039D
014D
FEDF
FAC0
F622
F25E
F404
F7EF
025C
0D6E
09FF
0115
FD67
0287
0AC4
05DA
FC45
FBD9
FD2D
FB35
FE5B
FD77
FCA6
03E5
0354
0334
02C2
01FC
04CE
0001
FC48
FB7E
FB90
FABC
F748
FEC1
0D6B
0F96
0BDD
FF5A
FE6B
038B
0A5C
07BC
0396
FEB7
FDD0
021D
00C2
FD7E
FF05
02A0
0217
FD8E
0236
02A4
031A
002B
0101
FC02
FEB8
FB6E
F9D7
0500
0C46
0DB3
06CE
0509
FFEF
0045
051B
0C8A
0A40
0829
0130
FBD8
FC52
FB2E
FE76
FCD9
FEEE
0033
FE6C
024B
0136
0176
041F
01A5
0202
052A
02C5
052B
0AE6
0643
054B
FCAF
FE22
FFEB
041E
09AE
08E0
0AE2
04E0
FECE
FEB1
FAB5
FB65
FD47
FF68
FCFC
FEE3
0073
00CF
063D
066D
062F
FF15
01B8
0542
0748
0C71
058C
0283
FEE5
FD26
0094
06BE
0FB9
0A2E
0CE8
0B55
04DF
0019
FCA1
FB3B
FAB0
FC4D
F865
FB71
FFA0
FD62
016B
06EB
0378
FFED
020A
03DA
0395
059A
FC87
FE7C
FC7E
01DE
0546
0661
09ED
08AC
0BFB
076F
0317
01D4
FD12
FD10
FBA1
FE47
FB7B
FB1B
FFB6
FD91
FEE4
029D
0156
002E
FFF2
044E
016D
0506
FB9D
FF95
FC01
00D5
07A0
05D1
07FC
00BF
03D2
0211
04B1
0017
FE80
025B
01B5
FECE
FFFF
FC53
FCE7
FF20
FC72
FA43
00DF
026B
01DE
050B
07CC
055D
F942
FF2A
0058
0273
040A
019F
FBDB
F43C
FA2B
FDA2
0601
01B4
FFFB
FFD8
015F
0428
00B3
007C
0163
FFDC
FE35
0197
0535
06DF
07EC
0ACE
0C08
0463
F9E3
FE80
FF40
0242
FE5E
FB99
F5AB
EF0B
F6A3
FE3E
03F9
0010
FF34
00FB
0545
05E1
FE62
0456
06B2
0445
0371
03A0
05B7
040B
0590
0968
09F0
FBE7
FD37
FE01
FDAF
FEDC
00FD
FAE2
F798
F923
FE54
01F6
0B91
0497
08D7
0A20
0D33
09D2
0EAA
0D3D
1064
0F0F
0CB8
0D97
0E24
0E0B
04F1
042F
0644
02E2
FEEA
FF2C
FE27
FF93
0007
05D8
02DA
01D4
0741
0B6D
0E3D
1662
151E
1692
16E2
1928
20F7
1467
13D4
14D2
191F
164D
1415
10EA
0C08
084C
0496
FE58
FFCA
FF44
FD9D
FE0E
01DB
009E
FFB2
FEBD
FAD9
015B
FDC5
01EB
0067
0644
064C
0462
1061
06EF
070A
04AD
02A1
0329
01C5
0207
00EE
FD4B
FE77
FFB3
0254
FEC2
021F
0078
0186
FE46
00F9
FD99
FF07
FF83
FFB9
01E5
FDD5
FE22
FFE1
FC57
00E5
FC1D
FF62
FF26
0041
0010
0075
FEFF
FF8D
0148
FEE3
01D3
0033
01BA
FED1
0154
0205
FEC1
00CD
0257
FC75
025F
0390
07A0
0171
FE58
FB7C
FEFC
0652
007F
FFAC
008C
09DA
08E2
04F6
038D
00CB
F8E6
022B
00FF
0165
FEFE
01F4
0267
014C
FCE3
FFB8
0214
05B3
0082
021C
FFD3
0928
09D6
0245
01AB
0681
05DC
06D9
0A4D
1624
20F5
1B58
0B26
0A98
05EE
FAEB
F9C3
FE8D
0253
0220
FEFC
FC59
FE33
05CB
0711
0643
04C3
0025
FF22
05A9
FEFE
F9DD
FB0E
FE05
FF5C
FD52
051A
0BC5
0DA2
09A3
0BA4
1172
0F9A
0C5A
047F
04D6
000A
FDF1
024E
F99E
03A9
07B6
0485
044F
07D7
0247
FCEF
FD66
FDBB
FD91
FE25
FCF8
FD9D
00C5
FD6A
01FE
04B1
0202
0A28
0DF1
115E
0FF3
0C48
FF8A
016A
FDE1
0158
01EE
008C
06ED
09EE
0751
0870
0552
06BC
014B
FC47
FAE5
FA07
FF28
FF8C
03F4
021C
0199
026A
00E6
0133
065C
0FA7
106B
089A
0730
0514
FEB0
0247
0403
0372
027B
068A
0513
080D
0877
0782
0038
FCA7
FC5C
F570
F6BD
F8A2
FB3C
F9A8
FAE3
FBCD
FC84
FBB5
056B
0907
0E49
0A01
0B4E
080F
FFAD
02EB
0023
03AC
06FD
0524
0554
0AC4
05CD
04B2
FEE8
FAC0
F4A6
F522
F558
F3D2
F596
F634
F732
F6A9
F7DD
F8D8
FEA6
0453
0E1D
1108
0C1C
08AA
02AA
0078
07F4
054D
0538
0BB2
03A8
0968
042E
0126
FE4A
FB7E
F84B
F6E7
EF5B
EB33
F139
F12B
F659
F7E3
FA7F
FB78
FB71
00F8
078A
1484
0A1D
0498
0212
0595
0703
0549
0AA3
05D5
0676
070A
02F5
0153
FF63
0071
FFF2
F6F1
EEA0
EBA3
EF24
F418
F823
FC52
FE1B
010F
0005
0057
0591
0FCE
081E
0208
0113
041B
0989
054F
0B0C
001F
02B8
01AC
02EE
010A
0679
0736
0BFF
07C8
F85F
F70F
FAA4
F837
F968
FAF4
FDCE
FE8C
FCFD
FB61
0130
10EE
0BE1
FFE8
0387
0310
0774
0EF6
0AC0
004C
FF67
0095
00E6
08F5
0B6C
1045
123E
0BB7
FF84
002E
0276
FC85
FC7F
F910
F737
F6FB
F983
FC33
FC52
0754
08FF
FF29
0071
0160
0389
07E4
026B
032D
0390
03A6
077F
0686
0A78
115F
161E
0C80
0244
0234
0646
0101
FB7F
FB8D
FB02
F9B3
F91F
FD48
FCE8
FDE6
000E
00E0
01F3
FFA3
00CE
FC4C
FB8F
079C
079E
0226
0469
0425
06FE
0998
088F
0118
FBA6
0430
0364
05E5
0442
004A
004F
FE1B
FE5E
0623
04B7
038E
F844
F6AA
05FC
030C
00F7
FC6F
FBFB
0728
03CD
FE44
03F5
032D
037E
072A
05A6
FF5A
0044
049E
06F6
07C8
0561
0009
FD1F
FEE4
054E
0C96
0869
02A0
F526
F80E
05C6
033E
0A70
0215
FAA3
FD8E
01E8
030F
0315
0223
0482
05FE
0721
044A
05FD
054A
08D7
039B
03E2
0070
FCA8
02A6
07F8
0841
03F5
0013
F711
F784
FF8E
0413
041F
FADA
F373
F737
0071
025D
040A
02EC
002D
0368
057D
0786
093A
0ACE
0481
03A8
04B1
03B9
052C
0754
0256
08C2
0814
F4F9
EFC4
F903
FFAA
072E
0316
FCB4
F429
FA6E
FEDB
0078
FFEA
FF8A
FD44
017A
0304
08C7
0A29
0521
028F
0049
041F
07BB
0862
048C
0568
03E5
FE5C
F152
F0DB
FA7C
FA95
0673
0780
04B0
F8E0
FA8B
FB3C
FB9D
0107
FEB3
FD65
0155
0498
0536
FE15
FCAF
FCD5
FDD3
00F4
061D
05E1
06D9
014D
0169
F667
F365
FBAD
FCA1
000F
0656
044E
0396
FC71
FD69
FBD9
F8E6
FE36
FCB9
FEC2
FF46
FD90
FC09
FAD6
FABA
FE25
0025
00FB
049B
0480
05F1
FD2C
FDB1
F5BD
F350
F89A
FF01
FF28
0418
0224
04E9
FAB7
F78B
F9BD
F937
F9EC
FDDE
FC11
FE9C
FA1B
FA5F
FDB4
FF72
FE90
0398
0556
029D
084F
00B8
FE7E
FB90
F3F2
EDEE
FD7A
0228
FE44
02E6
0149
05FD
FDE5
FA96
F295
F86C
FF29
FD22
FEED
0102
003C
FF8A
0448
029F
0157
06F5
0494
04A3
043B
037D
FE74
F7ED
F298
F2D4
FF6A
FD23
00AF
01C8
05A6
011B
02AA
FC51
F7EE
FABB
F98B
FE0A
FDFD
FF0D
FD86
0033
038F
01B3
07E8
089A
0609
07B6
02C5
FFD8
FD3B
F443
F803
FC71
048E
FD8F
FE0E
FF0C
0513
04E9
0A76
04DB
0513
FDCA
FEE1
0160
0156
01E6
FDCD
02B9
0359
03F1
0715
0900
09AF
047E
00F6
FBDF
F5F4
F7F0
F4FA
FEFC
07CF
FF5B
FD9B
00EA
038D
092D
FFDF
FF81
FFBF
0201
FFA6
05C0
04E5
07A2
0189
0079
025A
FF71
047F
03E9
0437
0234
FDEE
FC85
FCFD
F7EA
F923
FB88
FB99
00D4
FEF3
021D
015C
00A1
FC48
F85D
F918
FDA4
FA3C
F9A6
FB1E
FEA0
F8A5
FD83
F9C9
FA2D
F8EB
F30B
F458
F5FB
F4FB
F5B4
FD48
FB8D
FFDF
FD7F
FDC0
FEDE
FFFB
00C2
FE2F
FB0B
FE14
FBA0
F78A
F400
F6DC
F505
F58F
F255
F35B
F1E3
ED05
ED9D
ED85
EDD4
F354
F736
F973
F976
04BA
0229
FEC0
020C
FF1D
0033
00F6
001D
020D
025D
03DA
01CF
FF22
FA32
FD32
FCBD
FD10
FEFF
0047
0352
F925
F979
0238
07C7
018B
FF3A
FEF3
08B9
07F6
0625
FF10
FDA7
0174
010C
0153
0029
0148
01F1
FFB6
003D
FE7D
018F
FDBA
FE85
0043
FDA1
01BD
006E
013E
015F
005C
FF8E
00C8
FFE0
0075
FFBD
FE6C
008C
FFA8
01C3
0224
0189
FE77
017E
FDCF
FFF8
FD8F
02FD
0623
04FA
0B97
0365
FF0A
0618
0764
0538
FC2E
FDC8
FB5A
FF05
000D
FBF2
011A
FFE8
06B6
08F3
FF84
01CA
FF80
FEFD
00FD
FDCC
FECE
0507
04A9
FC57
FF36
022E
00DC
03A9
0736
06FE
0440
FC70
F6F0
F634
F947
FAE8
FC3A
FB8D
FD1C
FB38
FBE0
FE8F
0185
055E
FFB2
0245
FE10
FED9
04F7
0453
FB1D
FE00
FB52
FE75
050C
0648
0DE9
0803
0B17
063B
0563
01F4
0466
0133
F7DE
F9E4
FBD7
F457
F262
FA43
0114
0184
0007
0014
FEA3
05CF
084A
013D
FCA4
00A2
07D6
06AA
0AD5
0D24
090A
0B49
0262
0083
FB7A
FC08
F802
F718
FA21
F839
F30F
F383
F702
F314
F8AD
FDBC
05B7
04A0
FFB0
0086
FEA7
06F4
FE71
06F3
0471
0648
0931
0774
0517
05E6
02AC
016B
F6F6
FAE4
F64A
F72D
FB19
FDA9
FB8B
FA92
F55C
F3AA
F843
0089
0A86
FCB1
0248
FF55
04FB
0C0D
0132
03DA
0883
04AA
0591
0572
050B
081B
07E3
0A28
05A3
04A3
07EB
05A0
0990
03BA
0299
01F1
FB26
F01E
EF5C
FF69
F9DB
FF8E
FED1
027B
03CF
0BC4
0617
02F7
03C5
FECA
021F
05D0
05D3
0489
0D00
0BD0
0BE7
0FA2
0FBF
0BF7
0B7B
0A95
084A
0174
00BC
F372
EA47
F357
F643
0202
FA92
0450
FF0F
0C63
0863
02D0
FF28
F91E
FED2
0071
0383
0373
089A
079C
0D4A
101F
0DDD
0E2D
0D03
06D3
0552
0245
0221
FB50
F2EF
F337
F959
FE21
0150
0380
010E
0D5E
09A8
03FE
FED0
FCFA
00C0
FF8B
FC5D
FF89
01EF
09E0
0E09
0DD5
09EC
0944
0755
047B
0157
FE52
FF5F
F869
FD32
FF60
FDA7
0498
0413
FDF0
07E1
0DA8
0896
0599
FEC7
FE7F
FB09
FC68
F9AF
FCF0
0015
06B7
0691
033B
045F
044E
03A5
FFD9
039F
02BD
FE27
FEA0
FF5A
03D2
01CF
0501
019B
0671
0CAA
0CF1
0593
0420
016D
FACB
FF3E
FE7B
FF02
FEA1
FE3F
03CF
0106
FF96
0015
0505
0647
0180
0578
056E
FFCE
FE22
FE0A
FEE0
077E
004C
0269
05B9
10EA
0A56
077E
02EF
FEA4
FFFD
FF15
0180
FEC1
FABF
F8A4
FBD7
FD86
FBB5
0003
053F
058D
06B7
02D6
FC62
FC6A
F75E
F7AA
F456
F587
048B
FFA8
037E
0C01
0E2F
09D0
03F7
FEB4
FE62
028E
0288
FFB0
F6C9
F557
FB91
F940
FB86
FE32
02CC
0057
03DD
FF82
FA96
F8A9
F3D8
F94A
F369
FB8C
0174
FB87
04DF
05FA
093E
0B06
FF3A
02E8
00E1
FFB5
0061
FABE
F5E1
F917
F85F
F6B7
FB6A
FCA0
02A9
0453
0265
FFF3
0041
F7FA
F825
FC79
F7C4
0E26
0053
FC9A
FFFB
FEBA
01B8
09BB
02BF
017F
02F4
0107
F96D
FD69
F772
FBBB
FA82
F666
F70B
00D0
042D
026B
0438
031C
FF73
FF0F
039D
FFC8
FA66
0019
08BF
025B
02E8
0251
05E6
102E
09F3
FDB2
FFFB
FAFC
F962
FED7
FBA1
FEB1
FA2D
F62D
F67E
0016
03C1
02A9
0502
00FF
01ED
0607
0373
02EA
FE3B
045B
0DC1
FF29
0161
00F4
0768
0DEB
03EC
FCEB
FB72
F966
FAC4
FAA8
FD40
FF20
FDB2
F712
FABD
FFED
0092
0212
01CC
0069
0067
0644
0074
0024
06EE
02A6
07B4
064E
0592
050E
0BD6
0C45
0640
001F
FB6C
FB5F
FD83
0072
01E3
F9BE
F709
F832
FD61
FDE7
0469
000C
FFA8
FDA6
0624
0AAD
03CB
0565
0492
0151
0512
0058
0539
0613
088B
09A0
0352
FD12
FEB1
FDCD
FA4D
0071
01BC
FE60
FA0D
FC87
FE63
FD42
01D5
031B
FFD6
02AD
0662
0860
07C6
0748
0C2D
0486
FF26
FFB2
06CD
05AD
0C5F
0A38
0384
FF5A
FE43
0094
FED9
FE39
FC64
FC8E
00CA
FDBD
FC83
FD32
FE71
FDC0
0078
0343
0067
0857
07CB
09DB
0C18
FFD5
FFE2
FDC0
04E3
016F
0631
0995
0655
035E
FEE7
FF93
FE34
FB1B
FECF
FB8F
FE03
FC3A
008C
FFD5
FA1D
FB8A
FF2E
FD04
FD2B
02F4
0917
090A
078A
0053
01AE
0045
0061
FFD2
0182
0571
040E
078D
02CB
0595
FDC5
FCD6
00B4
0202
FD8C
FE5F
FDA7
FF52
F99D
FCDE
FC3C
FAB7
F917
030D
0A2F
09C3
06D6
FB1A
03F2
FFBF
0184
FFEB
081A
0AA9
0925
0B6F
0CD5
0D35
0624
011D
0122
FF09
FDEA
FE69
FDE7
FC16
FCF2
0076
FF76
FD10
FFFB
094E
0856
0EF6
03B3
F8F3
004A
FD91
0097
FF64
0975
0F5B
1090
10E6
1067
0F67
07C2
07DF
03F1
0551
05FF
03AD
081A
091F
0CD6
083F
0417
FF13
FF32
05F1
0965
0CF2
FA4D
FB95
0013
FF4F
FFFF
01AD
0300
0D3D
1111
11C7
0FD2
101E
0F07
0FB5
1243
1408
12CD
114E
11BA
118A
126E
12AE
1129
0862
0AAC
0201
FEF9
0A33
FB67
FDFA
00F3
01E2
00E0
00C5
01BA
0805
0C49
10F3
0E70
1350
1707
138E
1501
1269
174C
1842
1446
137B
15AF
1883
135A
0FAE
0E16
04BC
01B5
005A
FF4C
012F
00ED
0025
FEF8
0045
FF35
FE5A
FB5C
00DB
06AC
0904
0770
05B8
06C1
0784
043A
0D58
07A4
01B0
04FA
0687
057D
0109
026D
FEAC
01DC
FDB8
FEC3
0223
FFEC
016F
FE85
FE16
01A6
FE1F
FFB5
FF70
023E
017F
0224
00B4
017D
FCAF
FE91
0172
02A4
018A
FE7E
FF71
FF07
0056
015B
FFA3
FEF6
01A0
012E
FFF1
FEC8
FF19
FE7D
FFE5
FE53
FD14
FCCA
FBC6
F8AD
FBDF
F9A6
F54D
F561
F58F
F067
F719
F37D
FD45
F6C9
F3ED
F24E
F402
F43C
F961
FCFC
FEB3
FF4F
FDF1
006F
FEF4
00E1
FCCD
F8BA
F8EF
0130
FE7F
F95C
F9BA
FD10
F793
FECC
FE53
F6EF
F34F
F146
F670
F9CE
F654
F4EC
F5EB
F2CD
F2BD
F735
F94C
FFAE
FDEF
FEDE
01A2
FE79
FE8E
F87B
F87B
FE01
FE80
F853
FF36
0241
03A1
0690
0877
F81B
FAB5
FE0E
FF68
FCD5
FD46
03ED
026A
0499
FF4F
FB1D
FC44
F93D
FFE3
0263
001C
0064
04C0
FC92
FE15
001C
FC48
0798
0CA3
0B9B
06B8
0ED7
098E
02CF
FDED
FE3B
FB21
0087
0272
03EF
01C3
05CC
015E
FD55
022F
FDEB
F95C
FA0B
0120
FF80
F905
FCD9
01BB
0528
0343
06DB
0C79
0962
0A2F
07A4
0206
FEE4
FEF2
FC3A
000F
FEC2
FD4A
FF2E
FF7D
FCAA
FD3E
FD90
FD38
FF4F
02C6
FE73
FEA6
FEC3
0313
0366
FF77
0635
02B2
0797
0AF8
09CD
036E
02B4
00B1
0240
033F
FEC1
0267
0010
FCF4
FDBF
FFBE
FC01
FA3C
F9A2
FC29
0324
06E8
00D2
FD3B
FFFF
0711
0979
05B7
0376
0492
06DD
0998
045C
0283
0432
0187
034B
0642
034A
01BC
FF5B
0187
00A4
02FA
04CC
0278
FEF3
FEC0
0916
0841
00B0
F9DF
0127
003C
07B7
05FF
056B
0699
0684
07A8
0068
FFBE
0130
0146
0228
06AD
00D4
0055
0089
0123
00BD
0716
05D2
0285
0036
02C5
0BF8
0522
FF15
FEA5
0306
FF25
056A
039D
06F6
0765
0595
061E
0574
04AB
01CB
00BA
004D
FE04
00DC
0279
006C
034F
01EE
048F
0853
073E
0051
0407
0AC7
02C0
0082
FCAC
00A1
FE8D
04C2
0043
0914
0833
0510
04B0
0545
0125
FE47
FBFF
F9C9
F734
F959
FDD4
0239
00D9
0104
FEBF
FECD
FE97
FADB
FE28
0FF8
095A
00C2
FEA0
FAAA
FCCA
040C
04BD
016A
0275
013B
02E7
03C5
03B6
FE50
FE37
F394
F228
FB73
00AF
03FF
020C
FF28
FA8C
F374
F123
F213
F4BA
005E
03D1
FE71
018A
FB5A
FD8E
0061
036D
FEEF
FCC9
FEB6
03AC
023B
0606
0498
0152
F994
F751
FEC1
061C
0624
0211
00A7
FAB9
F5AD
EEDC
EA47
EF5D
FEC3
09B4
068D
F9DD
FE64
FCA6
FE59
028D
FF12
FD95
0249
039D
028E
083C
0814
0507
0202
FCB5
0018
0461
0668
0707
0451
FFA0
F937
F343
F0D6
F231
0D9C
1452
0B0E
F9D0
F7CA
FABA
00AE
08F3
00D4
FDE3
FCB8
046C
0388
05B0
0A3C
0A1B
01A2
FEE3
032D
0714
0545
06AD
04AE
0188
FF4D
FAC7
F910
F886
05F4
0D74
0ABD
F9B2
FF2C
FD36
0739
0750
FF48
FF32
FAB1
FDC6
FC43
01DF
05EA
06B2
04B8
001C
0372
085F
0B7F
0597
056C
02F6
0326
FE91
FE05
FA0B
0135
0BDA
05EC
FBA7
FBEF
FCBC
092D
073A
01DD
FF25
F86F
F805
F7E4
FB34
0326
0976
056C
0415
0779
07B8
0B02
0AE7
05D7
04CB
008B
03F6
02C2
02B9
0791
0D59
0720
FDB8
FBC9
FF53
0C0E
0AB6
068C
FF32
FA08
F843
F66B
F5B2
FBC2
04E7
0987
0486
089C
066F
0B6F
09A2
05EA
FE34
047C
01CD
0381
FF4B
0925
0B01
070B
03CB
FD47
0000
0D13
0A23
0760
02E9
FC74
F6B0
F6A1
F3C8
FBA3
08E6
0B6F
06AF
0572
051E
06F3
03EF
FF63
FE1E
FE8A
0413
01CE
0342
0957
07DC
0247
FE07
FA04
01BF
0CD3
0A9A
05D4
FEF4
FAD7
F654
F676
F6D2
FB96
0150
07A4
03C8
0238
0152
022D
FDDC
FB9A
FCC6
FF64
FF0A
05E3
08BB
0941
07E6
FFF8
0176
F921
022B
0B2D
086A
04EF
004E
FB85
FACA
F86D
F5AC
F7C7
FC80
00FC
000E
0084
FF08
FECF
FCF7
FD6B
FDE8
007B
0A49
0CD4
11A4
0E0F
0479
019B
FDDE
0362
0430
05D9
0A11
012D
02E4
FCC1
FE55
F99C
F78F
FA06
FCDB
FD09
FE92
FC9C
FEC3
FC48
FB96
03C8
059E
064D
0E03
0F39
0CDE
05B1
0129
FCDC
FD41
0009
02FA
06FF
0719
FD7C
F8B0
00E4
FF44
FDB3
FD55
FDA1
FDC2
FCA0
FC4B
FE4F
0086
FDD4
016D
0921
09A8
0AF9
0FDB
0D46
09BE
0065
FB69
FF45
FF67
FE58
FD93
0934
0919
0553
FF8A
0357
01FA
FC57
FDBF
FF07
FA46
F9A9
FF26
0177
FFAD
0370
04E5
09CA
0F7A
0E69
0CFE
0674
084B
019F
FFD7
FD8D
FE32
002F
037D
0996
1134
0AA7
0B9D
0787
0548
FEDC
0094
026F
FF98
031E
020D
0416
0697
0808
0703
0BA9
0D21
0B07
0A5D
0334
02F8
017D
00EE
FDBF
FFB9
0105
FF65
0682
0C3E
11FA
0CFD
1071
0E23
079B
0B5C
0CFA
1024
11AF
0F63
1084
111C
0D39
0C06
0C56
0AD4
0B55
0997
0661
036F
0496
006A
0225
FFAB
0028
00BC
02F5
029B
0973
09F9
088B
078A
0488
0A2C
0ADF
09AB
0A09
0A92
084F
07C1
0451
04E5
03BE
0661
07AD
057E
0158
0104
0030
FEED
FE9B
FE37
021F
01B6
FF8B
0014
FC61
FFDF
0454
034E
0065
049C
0330
01E3
02DB
0486
066A
02E1
0328
0355
0121
0580
02DF
0250
0578
00EC
FE93
0207
FE45
FF93
FF8C
FE5F
00AC
FDBC
0230
01A2
FEDB
FDFA
005C
013C
FF77
FD46
FE97
0172
0086
FDA5
FE13
FDE4
FE63
FED6
FF4B
FFB2
FF3C
0191
FE56
010B
0241
FFC5
00DA
FFB2
018B
FE34
FD61
F9FB
F872
F7F7
FAB2
FB4A
FB5C
FC47
FD75
FF08
FC3C
000E
FD2D
FDDB
FE9D
FDD3
FE63
FDC6
FFA9
FF9B
FE9B
FF50
0069
0227
00A9
FF63
FEC4
FD09
FF88
017D
FB05
FD4B
FC7C
F8B6
F805
FB97
FE4A
00DD
0375
FF71
FD3F
FC51
FF2A
001A
FF6F
FC12
FC14
0192
FB70
FEDC
023C
01A9
00AE
FE3E
0165
FB41
00A0
0288
FB7F
FE70
FE4A
FCA2
03C4
04F7
004F
FFE9
FBA2
FC6F
00CA
0252
FCE9
FFA0
FC76
FC50
04CE
042A
FE63
FBE8
FED1
01D7
0375
06EF
04C5
04D6
0ABD
1022
0C73
05FC
FF61
0183
042F
0385
03D1
00C8
FD96
FE24
F835
FD58
FC00
F667
F572
F859
F98F
0082
F9EE
FBCA
FB86
01BE
FFB1
010C
05DC
0A80
0F0D
0C45
04BF
0320
0314
0006
003D
FDB7
FE13
FD40
00C6
0112
FC57
FFD5
FBB4
F991
F768
FC7F
02FB
0EB7
024D
FD47
FFB5
0100
0695
0818
0EA5
08EA
0929
079B
0461
0215
038E
0292
0064
FF87
0198
0103
FDE3
FEE8
0018
FE85
FC44
FAC9
FBA8
00E5
00E0
0AEA
10EB
0EDA
045F
FE8F
0804
066C
103E
0B8D
066A
0820
05D0
01A5
0188
01D1
008E
0084
01D1
FD63
FCAF
FACA
FFE4
FE84
FE10
FE3D
006C
0002
FAFC
0487
11CA
0B7C
056B
FF34
0276
048B
0962
09EE
062D
019B
0258
00D2
FC6F
00F8
FFF6
FEA5
00A2
FE32
0090
FAC5
FD35
FD58
FF41
FEB5
FFDA
FFA5
FEE4
05C9
03DD
035A
FBB4
0263
01CC
080F
0D16
0AD5
061F
0061
0099
FF28
FF32
FEFD
FF8D
02F6
013D
020A
03BF
0406
0264
FFA5
FF6B
019C
0090
066B
04C5
03F6
038F
FBDC
004F
01FD
065A
0BC6
12D4
057B
0250
FDB2
FD7C
FDEB
FA9B
FE3A
FFEA
0376
0325
0654
05F4
01A7
0279
0230
00A1
0470
06A4
09E3
01EF
FBC7
02B9
082F
FFB5
0861
027E
06DC
1480
06BE
FBEC
F8C1
FC64
FC7A
FBE3
0220
0533
067A
050E
0550
0915
0785
06EF
01C8
FFD5
0036
053D
0423
FA8B
F419
085A
04A9
0A42
06AD
0414
0A5C
08DA
0744
FA36
FADC
029B
FE92
01DF
06E5
0793
0540
0298
04F0
0751
0672
0656
0376
FDEF
FEB7
002B
03E6
F7A0
FCB4
0CD8
06A0
0666
014B
00A7
072D
0485
0C7C
0106
0229
0310
0696
02B8
03F4
026C
0269
02EF
05F7
05AA
084B
0448
0397
FE5B
02D9
024E
0359
FC54
0A18
0A72
06E6
FEB1
FD2A
0775
06E5
05C3
0DAE
06D9
0539
0671
0468
05D3
0244
FEC5
042C
081B
075E
0AD6
0709
0690
08CB
0812
0141
039F
0A25
0564
0287
0292
FBC2
FE96
FB8B
05BD
0394
08E2
0566
046C
0523
00C8
0285
0545
065F
099C
0B84
05BE
03FE
0A51
0783
0A05
04EA
04F2
04D2
07D0
0A70
0840
FCD0
FBD7
0106
FFE8
0548
0460
01AE
0343
0367
FCEB
F855
FADB
FA88
FFA8
05EF
07E0
0BC2
02FD
04C4
09FB
08AE
0681
068C
0126
FEB2
FF6B
01AC
035E
FBBB
F73B
F5A6
FFCB
00FD
048D
009B
0363
FFB1
F785
EE9B
ECF0
E920
EF96
F118
F786
F7FE
FA10
0267
0812
01E5
0341
0011
FC98
FCF9
FCE8
F98F
FC7C
F63A
F4DE
F8A1
FDD9
03CC
05AA
06C8
0A4E
F9B2
F30C
EE9C
E8BF
DECD
D9A5
DAD9
E453
E751
EC88
F862
00BD
00D1
FD18
FC20
F955
FAB5
FD7E
FCA2
F7AC
F569
FABF
00E2
00C8
0213
0239
07B9
0EB4
FEF9
F4AA
F2B6
F06F
E85F
DF2C
E005
E521
E3D5
EC70
F6CC
FA1A
FB3A
F871
FA99
FBEE
F834
01A6
FDBD
F8C8
F613
00C1
039A
012F
0167
018E
072C
0EED
0415
F65E
FA3D
FA7F
F99C
F64B
F601
EF1B
F0B6
F4D3
FB8C
FBEB
FAB6
FDAE
FC82
FD51
FF29
FC73
F83B
FA5A
F7EB
0049
048A
004F
0293
011E
08A1
0ACC
0577
FC71
FE8B
013A
FFF7
01D8
0042
FFA1
FE9B
FA68
F888
FB37
FC60
FBFC
FAB6
FD48
F7F3
F93C
F76D
F8B2
FDCC
022A
021A
FE49
FFEC
0294
043A
0A89
0612
FD75
FFD8
02E9
0577
06B0
0B98
088E
03C5
0048
FA50
FEE9
FD25
FC5F
FBE3
FA1E
F9EE
F50D
F683
FC56
0309
0226
047D
00AA
0041
FFCE
0349
0FF4
092D
020E
023F
03D9
065A
07E8
099E
09AE
0728
014E
FDF1
FFF5
FE00
FB50
FAAE
FC0C
F552
F356
F71F
FB3E
0370
01C8
06EF
00C6
0263
00BB
0264
0F04
15B4
10B1
0E9D
0AAD
0A32
042A
06E5
037E
003C
0129
0061
FF13
0066
00DF
FBDC
FA33
FC0A
01A0
0147
FC8C
FBA9
FF70
0115
0187
01DD
0134
FDDB
0238
0EF0
18BF
1060
12C8
12EE
1045
0B1D
03E7
02AC
04D8
FFA8
FE09
013C
FB44
02E1
0513
049F
03C1
0753
0253
FE4B
01A9
00C5
0113
FFC2
FFF7
0080
04D3
049E
0969
10F4
0AD1
0AAA
0C56
0C08
0922
07AB
1087
1070
12D4
0FAE
0EB7
0CBD
0A09
076D
0305
FE8A
0138
FDDD
0314
FF5B
FDA2
009E
FDEF
0156
00FF
0109
0729
0968
0AEE
0266
07EA
05D3
07BA
0650
103B
0E2C
0D6F
136E
0D23
0689
0142
FF3F
0366
079D
01D2
FDFE
0134
FE17
FE3A
FE30
FF80
0009
0085
FF1E
FEA4
01C3
005D
001E
FF4D
022C
0005
FF2B
FE4C
037A
03CC
0158
FDAC
FFB6
FF5B
FEC3
FDAF
FEB9
FEF3
0119
FE8F
FE45
002B
00E0
FEF6
0127
FEE3
FF20
FE3D
F7DA
F70A
F84C
F922
FBAB
F862
FA0B
F738
F871
F44A
FA24
F838
F707
F768
FA28
FE30
F58E
FA4F
FF64
FFA8
01FC
005C
0104
0275
FEA2
001A
FE5D
FE2B
F640
F740
FD3F
FDF9
F847
F4F9
EFC2
F1B6
EE43
EE69
F0AD
F7E7
F865
F8BF
F849
F736
F6D2
FAB5
02C7
0364
FDEB
FDA1
FF44
006B
00D1
FE28
F96C
F7B0
FB37
FE27
0139
03E0
022C
009E
FCFE
FCE1
FADC
FBF5
FDB7
00D3
FF0E
0164
0333
02D8
0708
FFD4
019E
06BF
038F
FE1F
0176
F7ED
F747
FE16
FD1A
F673
FB14
FA32
FA22
0072
0198
0324
0266
0118
0264
023B
04DF
078C
08A2
058C
0344
04BE
092E
0E1F
074D
08F7
0216
01E6
005C
01A4
F99A
007D
F96F
F41B
F9CE
FF99
FFF6
02E4
08DC
097E
04E6
0854
0497
0522
069F
06FD
06B2
04F3
03CB
07CB
07B8
0CAD
0CF4
0595
FF43
044F
021B
FCBF
0357
FB76
FC56
FDAA
FD0C
0485
010E
0291
04F4
058D
08CF
08F8
0990
09DD
070E
0502
02DD
04CA
02A2
01CF
0755
0409
0B6D
0680
05E1
FE8E
0188
005B
046F
FEB4
FADF
FC97
0260
FF39
00E1
0406
073C
0B70
0602
073B
0720
022C
0275
0171
0333
0364
0249
FCD3
0046
027F
04B1
05EB
0368
01C1
040F
03F8
0101
FC89
FABF
FCAE
00EB
FEDD
0452
073E
05EB
054E
04AA
FC5B
FA49
FD3F
FE4D
00F5
FC8B
FAC5
F84F
F947
F844
F9FF
FE75
0377
0166
022E
FFD4
01DB
F798
00FE
FE2C
FEEF
FF01
FF70
02CC
026E
0701
051E
FE77
F6AD
ED18
F05E
F8CE
FC87
F98F
F4E5
F4B5
F157
F1BF
F36B
F71F
0230
FF63
02CB
FF64
FF71
FD0A
FEA7
FD21
0237
0221
FD61
0275
04E8
0344
01A0
FC7D
EE0C
E63B
E92C
F583
F99F
FB96
F884
F7E3
F4AE
F009
F115
F7A1
FDEA
0091
02A7
FEC4
FF9B
FD03
FC63
FC7B
0759
07D6
0120
03CB
008E
FE44
FC51
F843
EFD6
ED8C
F0E0
FA16
FD1F
FAD1
FE86
FAF5
FA9C
F51E
F64F
F564
F624
F89F
0077
FD22
FADC
FD7C
FF28
0424
0930
056B
039B
01E7
FC37
F98D
F9FA
F8BE
F7A0
F396
F91A
F69A
002B
FE8E
FFF1
008D
003F
FF91
F79A
F0C3
F431
00CE
022A
00D9
FFFA
FD23
FD6A
0352
0A0B
05B7
04B5
FE23
FD4C
F864
F988
FC29
F990
F9BE
F414
F69F
FC2E
FFDA
01D9
026C
0376
019C
FD99
F8B3
FDBC
0636
07C4
0494
FA3A
FC3F
FC1F
02D4
09C3
0C5D
086B
04AC
FDA8
FABC
FD99
FB0A
FC45
F975
F547
F9C2
FB3A
00B5
0202
029A
03AF
03F0
032D
0488
040F
0DC4
080B
032C
F9AA
F89C
FB05
FF84
043E
0360
0A59
042C
0138
FE96
FF93
FD89
FA45
F78F
F758
FA14
0099
001E
040F
024B
FF7D
F9A2
FF3F
0BA6
0BC8
0F88
0962
FDA7
FF3F
FD7C
FEBB
FF74
0208
FF7E
FF11
0006
FE4E
0285
02EC
02BA
004D
FB00
F97A
0053
0532
03B1
01FC
021B
FF09
FF73
FD75
0357
1216
0F3E
0AF0
FF46
FDCF
FFA0
FD24
00B5
FD34
FFBB
FB20
FEF0
01B3
0820
0B40
0C33
06CA
FD70
FC2F
0407
0702
04FE
00CC
FFB7
014B
FF26
FD40
0447
1729
0CD2
04C6
FC41
F754
021D
F94F
FF5A
FC07
0121
02AC
00E2
FF41
06FC
09A6
0872
000E
FC8F
FE9F
05BD
0345
02F6
FF90
042B
004F
FF9B
01BE
0E60
14A9
077E
0465
FEF3
FFD1
02FD
FF7A
0112
FC7B
012F
0053
02C7
0173
050D
0604
01BC
FBBE
FAE4
FF51
04EE
044B
01C4
03BB
0466
028A
055B
0812
0EEB
13F4
076E
02D8
FE03
00E9
01EC
0280
0216
03C1
FE00
FEFA
037D
050E
0338
02DF
FF58
FA7B
F819
04E7
08BC
0472
031F
0665
009C
01C1
055C
0D82
161F
0DFF
02DF
0493
00C5
FBD2
012F
07B3
047C
0513
029F
0155
042B
06E8
0680
0829
01E4
FD77
FEF0
0347
06F0
0508
043D
02D2
00BD
06CF
093F
15B1
1897
0936
034C
02F3
00DC
FD10
FE77
01C9
07DC
03A8
FEF0
FDD5
0436
0668
0580
074A
007D
FEBA
0033
0211
0386
0553
03A8
01F7
0683
0A0E
0E8D
176E
1563
09A6
FF13
0227
0226
FF70
00B4
FDD2
007C
01F3
FE2B
FCE1
FE98
00D4
0540
0198
004F
001E
FE14
00CB
FF3E
FF10
FB93
FF68
04FC
0BE5
14D9
1438
075A
07A0
F823
0269
0125
FDAB
FDDD
F6AB
F9F4
FA9F
FA21
FAF3
FDB5
FB50
FD58
FF95
0175
0030
FCB8
FE03
FA93
FAA3
FD77
0695
0B25
07B0
0B7F
12A5
0EB6
04E7
03BD
FF53
0220
021C
FFEF
009B
FA03
FD09
F8EC
F7F0
F2B7
F100
F365
F26E
FBCC
FC97
F976
F9A3
FC01
028C
0170
04D6
0404
05B0
0319
0C03
097C
0307
0259
FE26
FEA6
FE6D
FE51
039C
FFE6
FE47
FD9B
FA09
F898
F68E
F8D4
F8E0
FECB
FC32
FBA4
F769
FAF8
FB3E
FEEB
FD38
01A9
FF6E
016B
0111
01BE
FE74
014D
FE42
00EA
026C
FFA8
00A5
012C
00B1
FE7A
FED7
FD39
FD10
FE40
FB1B
FD47
FBDF
FA2D
FA97
F7AC
FACB
F92B
FB7A
FEC8
F8C6
FBE2
F9E0
0234
FDA1
FEEB
FDAF
FE63
0062
FDD5
0085
FEC9
00DD
FDC9
00BA
FF29
FFBC
020E
01B5
FC2F
FCDA
008B
01E1
FEA9
020B
006E
0148
FFAE
FEC2
FF3F
0036
0176
FF91
008E
0117
FDF2
FEDE
01CC
0122
FD94
FAB7
FB3A
FB23
F70D
FA55
F7B4
F438
F5C4
F3A5
FE91
FDCB
0017
FE3B
F848
F557
F599
FB80
F981
FE63
FE83
00D9
016D
FF41
0147
0136
FEFE
F8F4
FE97
FDBC
F849
F6F6
F799
F766
F37E
F916
F5A7
F6E5
F613
FE30
FFB8
FAA4
F92F
F8E6
FAC2
F8C6
FB77
FBBA
F826
FC5D
FE3D
01C1
FE48
0188
036F
FC5A
FF26
FEB5
FCB8
FA42
F951
F3C0
F5CE
FE9F
FE35
F871
0090
01B6
FE06
FAC3
F961
FA41
F82E
FD81
FB2A
FD6E
FD99
0466
0301
FF17
FE1C
FF1C
04B6
FC83
0295
FFED
0241
FEB4
FE6F
FFD0
FEFC
0610
058B
0847
0875
050B
FF89
FF9D
FE70
FF50
00E9
04AB
08C6
0C3A
0BB5
0415
F976
FB57
0086
012D
FF3D
0474
053C
FF0E
FF42
FF63
FD85
FF35
00A6
04E7
0481
0611
0614
0459
022F
020C
0555
0415
078B
07F0
04F1
07BA
0C90
0107
FD40
FD8E
FDDB
FBC8
FFD5
0023
0382
03E1
014B
FFE4
FEFC
02A2
0686
051D
022A
FFA3
FC94
F923
FE0F
FF27
FF00
011E
0434
0117
0789
0921
07FA
052E
0739
04FF
FD8B
FA63
F8F0
FE0A
00AA
0052
FAF1
FF22
FFD8
0139
027C
0107
F8BF
FD68
FDB8
FC6C
FC5A
FED4
007B
04E0
01C5
024C
FE07
FF34
0516
0EF4
0AAC
039D
018F
F9AC
F63C
F9EC
FC9F
0074
F949
FD0C
FFC7
006B
FD61
FA48
F5CD
F951
FE48
FCD6
0108
0005
0412
0653
014C
00DF
FD8C
FDC2
02F9
0E24
0777
FA74
F99B
F996
F906
F823
FBA0
FD53
FBC9
FDAA
FED6
033F
FF6F
FA2A
F8E9
F99E
FC99
0338
0682
0335
0455
04D1
FFBD
FE89
FF12
FC14
05EA
0928
0539
031E
FC46
F960
F58D
FA22
FB9B
F7E7
F9EE
F9DC
0168
02CD
FE2B
FAFA
FDDE
0099
01D0
0A59
07D7
04C4
0566
023E
FC6B
F93F
F7FF
F770
06AA
13A6
0E0F
01B9
FA19
F802
F856
FA8F
FEAE
FB9B
FD6A
F73A
FF35
01C4
FE5D
016E
0377
013E
0725
0B3A
061E
014F
0256
018E
FC07
F59C
EAB5
EC27
F746
0BC7
08B4
0182
FD65
FD03
F96E
F42A
F69F
F975
FADE
FCEB
0202
01FF
05FC
0683
08CF
0747
0C8E
0C0D
05F2
FF91
0182
00D8
F854
EEB0
E842
E0F0
E677
FCD7
064E
03E8
0213
FB2F
F652
FA4F
FC8A
FFAF
FA79
0073
011E
0404
07A7
0982
0E30
0B78
0BEE
0377
0138
036F
02FD
03D3
FC85
F204
ED3E
E77E
EA3E
FB9A
FFD3
03E0
FD80
0140
FB73
00E9
0106
00A6
FCE5
FDAE
032E
01B4
05CF
0755
0CCE
0905
06EA
05D4
02B3
0366
02D9
FF50
F64E
F167
F1B9
F2EB
F905
FBCE
FE73
010E
F943
FEBA
0474
083A
06F3
0316
FBD9
FD00
0311
02AF
0857
0406
068A
0A20
087E
0214
019F
FD6E
FCE9
FBED
F88E
F240
F605
F950
FB39
0012
08AD
07A1
FBAF
0271
040E
0BEF
0B24
00A1
01EF
FF04
01CE
0070
FECC
FBDC
00FF
06B2
0510
0379
02F7
FFF7
018A
01CB
FEFB
FDFA
FD8C
FB70
FCE4
FC65
074E
091B
020D
0343
041F
0CD9
0DF5
0611
0BFA
0756
067E
FBC6
F133
F058
FA0B
06C8
084F
007F
0020
0173
00BB
0392
01F6
0449
04D9
0747
FE30
FEEB
0F9F
0DD3
FE6B
01C8
02B5
1162
0BC6
0BDF
0F3E
0C6A
051B
F9F4
EC5A
EE71
F555
0525
0A4E
02E5
FF12
041F
032B
04C0
0A78
09C6
06F8
0A5D
03AD
00BA
081B
0911
0421
FC0F
FE8F
1242
0F69
0864
0F19
091E
0278
F75E
F1E1
F3F9
F96F
0574
05CB
FE34
01C2
01E7
046D
06AB
0A1B
0B23
08C1
0C48
0B01
05D2
09A2
04A4
FE21
F802
02F5
0E8A
10E1
0B72
0B55
069E
0249
FAB7
F4A1
F769
FBCE
023B
FD7F
FE39
0358
0472
06B8
06EF
0A99
0CD1
0F99
0BCB
07A3
08A6
074E
05DC
0588
FDAC
08CB
0E10
0D19
0BB0
0976
081A
02D2
0080
FE47
FBB7
FD22
FD0B
FB3C
FD7F
FFC6
0253
044F
0CA1
0D70
0D7D
0D42
0C8A
08CC
FE5B
01AE
0149
FFC3
0085
091E
07B0
0A6D
04FC
03B0
0057
0289
03FF
FEE6
FB44
FB8C
FB54
FAB1
FB57
03E7
06E5
0D34
0F76
0E29
0FE7
10AC
0A1A
0A8E
06E2
0807
FD96
007F
FEA4
075A
08C1
07BF
030A
04FB
0108
0183
0141
FF7A
FFD0
FD67
FA06
FDE9
FEC6
0360
05B1
0885
0E29
0ED1
0E69
08B3
07C9
096E
0565
04FB
00FA
012C
002A
05A9
08CB
030C
051C
0576
04F8
0494
00F5
00B1
FF7E
FD70
FB26
FC45
F92E
F7C6
0239
0209
07A9
0886
0497
093C
0900
0346
08A8
027F
FEC3
FEF8
FF93
0214
02CB
012A
FDD8
FE98
00E9
046E
0510
0245
01B2
02AE
0189
FCF9
F92F
F796
F9D9
FCC0
00EB
0211
00CD
08C7
0A49
015C
0186
FCBC
FD9A
01D8
FE61
0043
07B7
08B6
03D7
0478
00E8
0180
0264
0101
FFFA
0018
FB6C
0003
0212
0056
F9DA
F861
F766
0065
FC9B
FC3B
FBDD
007C
FE18
FD90
012E
FE17
01CD
FEF8
FF39
FCD5
FD18
0118
035B
0144
FDDB
F783
FE41
0136
F98F
FF4B
FF00
F884
F81C
F6EF
FA7D
FBAD
F806
F900
F945
FDC6
0169
FDD8
FF25
FFF0
FF59
00E9
FE4A
FE13
0212
FEC1
FE0D
FF5D
00DC
010F
FFF9
01A7
0212
03A4
02CA
FEF8
FF48
FE10
000D
0174
0277
FF7F
0045
012A
0037
022C
00ED
0162
FF43
FEAE
01C2
FFAA
0097
0602
0577
06BF
0448
FE84
FF7A
FAAA
FC57
011E
0181
05DC
00E2
FD58
0009
FD81
FEE9
FFF7
06C8
0160
025D
010E
FFFD
0014
01BA
FF17
FF29
FFF1
FD4E
00DD
0399
FD7C
FEAE
0189
FF8E
0190
F93C
FE70
0297
01A6
FEA4
FDC5
FAF5
FC69
FAC2
FC56
FC34
FFEE
058E
003C
00F3
0104
FE69
0351
FE5E
FB8E
FB6E
FD57
FA4D
0264
018B
FDD0
FD9D
0376
0403
04E1
0602
FCAA
FD5C
FCB7
FDB5
0036
FF34
FE97
FD54
FC7C
FD4B
FDBE
FE74
01A7
FEEF
04F7
015C
FCBA
FFB1
0555
02EE
02C9
0328
05A1
0702
0908
0580
065D
03C7
0018
FDAA
FFF9
FE9F
FAF5
FFDD
F99E
F8EE
FED0
FF6C
003B
FCDD
FE0E
0225
FC14
0143
FE1B
0306
024E
016E
035F
054B
0565
09E7
0663
0988
046C
0444
0294
FE7D
FB5C
F9E5
F9CE
F8D7
F339
F6DC
FA6C
034E
0406
FC59
FDBB
FD10
03A7
09D2
0504
0445
0551
0335
0751
0780
0909
0BDC
0A2A
08C8
0945
08F1
06CD
0322
0111
F7D8
FA70
FA74
F8C5
F6B5
0141
03AF
00AA
FF44
FF20
03E7
0536
09D0
033F
0250
0651
034B
0582
082B
07C9
05E6
0731
05CF
087B
09B5
0975
0573
037F
03B8
0025
FBEC
FF1F
03AD
053B
076C
01F7
00D2
F884
0366
030D
0895
0579
06B4
0784
0461
06D9
070F
06F0
0532
0686
0127
0301
04FA
0658
071B
0643
0814
04FB
0415
04BB
080E
0C07
0C79
06E7
022F
020A
0992
05F7
0B0F
0788
076E
07ED
035E
03E4
05B0
0298
00C9
0270
FFCE
0762
08B9
0700
0994
0C1A
0601
08B6
044F
0320
0687
0EC8
134D
0F7E
02F1
0165
FEFD
07E0
0C6F
0922
07CD
0A16
05C1
01A9
FF21
FBF4
FDA5
FFDB
0426
0D6C
0811
08A1
0878
0811
045E
070D
01A2
0258
0175
07E2
191F
0F5D
FF93
FDCA
037C
0F41
0AE0
0747
032C
010D
FAE5
FBEF
F9B0
F902
F9A7
0357
08C6
0D32
05F4
039E
0283
0189
0314
0347
FEA5
F667
ED37
FB46
0F6D
0778
F8E6
00A4
0818
0E57
06F6
0623
0165
F7D9
F626
FACE
FAC7
FA62
FC06
0034
0744
09DA
0407
FE8D
FFF9
FBE9
FEAF
017C
F831
ED12
E55D
E78A
F81C
0214
FFF2
FE70
04D1
07F4
087D
01E3
FD45
F25B
F90E
FB8F
FAC2
FC74
FC5E
FFE7
0568
064E
0138
FE24
FE50
FFB5
FFE3
FDB4
F907
F065
E8B5
EA1E
F6F3
026A
065C
FE35
0445
077B
04E9
0319
F987
F4E0
F832
F71B
FA85
FCCE
FD79
FBE8
0202
01A2
0087
0276
0341
023B
FF04
FAD8
FBFE
F21C
F3C4
F6AA
0094
0E42
02FA
F920
FB2D
0271
05EE
0906
F95A
F716
F42C
F887
FB7B
FC7B
FB94
FA34
FF1D
FC85
0148
FF5B
0131
FED1
FF48
FDD4
FCDF
FA76
FBC9
0259
047C
0935
0B27
FA0E
FE66
0557
09CA
0D56
FD44
F894
F610
F576
FB27
FA8C
F687
F974
FB12
FA43
FDCC
0298
01CF
FE4A
FD81
FF3D
FF1D
024D
022D
0A51
0BFC
123D
0777
FE24
FF20
0554
0C93
0F0C
0559
0162
F83A
F797
F8FF
F848
F67A
F85C
F9CE
F924
FEA0
037C
0284
0119
FD4A
FFC3
01A8
0449
04C9
0B17
0AEF
0C8C
03BD
061A
FCFC
0063
0655
0D17
0765
0587
00A4
FC3D
F738
FBA3
F7F0
F80D
F9C9
FA75
002B
0091
01E5
0419
06C9
05D6
035A
0835
0566
0599
028A
06B4
0530
FCD8
0678
0184
0898
08F6
0385
033A
04B3
044E
022A
0223
FFF2
012E
FAFA
FA2F
FC0F
FEA0
01E2
02F5
0494
06CD
036A
087D
03F9
0480
04FB
065C
FD5C
FE89
06BF
0077
0849
073C
059E
065A
0250
024B
03A2
02ED
FFCF
FF0B
FA6C
FA9F
FCDD
FFC5
006B
04AC
01F9
0541
04B6
0871
06E8
06D4
03FC
01D9
02C4
FD05
0157
01F3
069F
0736
0447
0468
0362
01F2
0313
003D
FD74
FA40
F99D
FD1F
FABB
FDD2
0091
01F7
0078
02BA
0749
075B
0AAC
07E6
03C2
FF80
0110
FE40
024B
018A
00EC
044D
0440
05DA
0270
04A7
FF6B
0228
02A2
FF3B
00CC
FCA0
FDBC
FFB8
0172
0110
FF6B
059B
0145
06B3
0C75
0824
0263
F979
FCA6
FDF0
00D3
01F4
000E
0982
0409
020C
0183
FF59
01EA
01F3
0411
02C2
001F
FFEF
0457
0447
023D
0219
01CD
FCC9
FE4D
0702
09B5
0774
0096
F9D3
FE76
FEE9
013F
01C5
04C8
1090
0B83
06FE
04BA
0613
0120
0127
FFAC
0317
05E0
08A4
0AD0
051F
0707
083E
04BC
03CF
013A
0410
03EF
0919
0068
FE3E
FE47
FF56
FFC3
FF25
0643
0D77
0A10
0C49
0CA6
0865
00F3
0128
05DF
0CB9
0B67
0A3A
0933
08A0
0E6F
0FEA
1018
10AD
0DFB
0422
0660
06C0
02B2
FF83
0248
FF2F
00DF
002D
FDDD
FEA9
077B
067C
07DF
0199
0340
05BA
02C7
0699
09F8
0BB9
0962
0C55
0C31
0F4C
0C72
0E52
0D89
0CAA
0A03
014B
FF87
0112
01F9
020F
0083
FFBB
0139
FC26
FA08
0000
0351
05CE
06D1
0AB4
0425
0633
02FA
095D
0551
0220
0610
08AD
0415
042F
04A4
060E
0457
001F
005A
FF6F
FF5A
00D0
0277
FF9E
FDBB
FE54
FF5F
0139
01FE
FFFD
FF8B
01EE
0212
02AD
0281
FD7C
FDA1
0017
000D
FFB0
FF51
0182
FF5F
01AA
FEBD
0138
FE07
01CD
010B
FEFA
FE25
0003
00BC
0314
06B4
0458
0801
07A3
0A87
0F79
0BC2
0AEC
105A
158A
1147
0AB2
0DF9
0C48
0FC8
0DBC
061F
0A6B
0783
0143
01FA
0026
008D
0108
FED6
FEC2
FF07
0133
0241
0839
0D0E
052E
02E9
0E16
0D62
124A
1300
10C6
0F05
194D
1356
136B
1370
0F96
0B85
0989
07BF
FEB4
FD94
0105
00DD
FEF0
005B
0285
0385
07E4
00DE
0716
0614
FFED
FF87
0516
073E
079E
07CC
0A3A
0BC3
0E5F
14D2
152D
120F
1019
0F0D
0F70
098D
0364
04D1
0294
0200
0056
0578
0277
0371
0777
029D
05A8
0677
FD5D
FD7C
FF54
018F
FE47
FECD
0325
055A
04B3
079B
07F9
05FD
0086
0625
0992
0B95
0C4F
0B1C
0154
FC51
FF11
FE98
00F0
0289
01A7
0633
0765
02B7
02E4
00F3
03EF
003C
FF5C
FF1F
FD3C
FFB5
01E9
0041
00D8
0068
0214
FEE2
0252
0A62
0EE8
0C02
03AC
01E9
FEE8
0164
0174
0964
0533
0666
0413
0096
05A3
06FF
06F5
051C
0269
020F
03E2
05C0
0436
0582
0508
02E5
FF51
FF6E
01FF
0349
0C48
11F3
0C5C
0321
0221
0426
FB50
040E
01CB
FF2D
0170
02E6
05B5
03E3
0759
0566
0775
0634
0964
088B
07EF
077F
066A
010C
0347
02CF
0295
0183
0874
0EDD
0CFD
0290
FDAE
012A
FB9F
02D6
0316
034D
0265
03D8
03C9
047D
0237
0003
02AA
071B
0C4C
06E4
01C6
FE89
FCF6
FBB0
FD33
FE24
FA8F
FC9F
FEF0
08ED
073C
027C
0165
05F4
01F3
0760
032A
FCA7
FFA6
0284
04ED
0194
FE1A
FF46
012C
03C8
064B
002E
F502
F06C
F58A
F3B8
F59F
F387
F3FB
F07E
FC41
0338
0220
024A
0261
03FB
03FA
10BF
FF03
FE44
FFA9
01A8
0233
01D9
FE66
FE08
FD30
0234
008B
F5B6
F230
F60F
F3BF
F23A
F2AA
EEDB
ED0C
E72A
EDF1
FD3C
06FF
058C
026D
049D
0B60
1161
03F1
FB13
FAD2
FE1D
01F8
0290
014D
FD95
008C
031F
FCF6
FB44
FDEE
FF0F
FDF5
F55F
F48F
F20A
EE9B
E9A7
EF93
F8EA
0231
0B59
FE78
027F
092B
0A2C
07C1
FBCA
FE6B
039B
037A
03A4
01F8
FEB6
FDF9
FDD6
FFBE
016D
0579
0897
04F3
FDB7
FD79
F78B
F32B
F0BA
EC83
F7AE
0152
0A93
04EC
0438
0570
07AF
0794
0061
01A0
FFAC
00B0
00B6
FE0B
FB5D
FB1F
FE8B
00F3
037C
038B
0654
0477
0800
0166
0431
029D
01C6
F680
F757
FCA0
FBB0
0189
066A
07F2
057D
FEC2
F80C
F8C5
FD02
FF1E
FF60
FCD7
F6CA
FBA1
FD4C
01AF
04AF
0421
0299
02C6
0594
023E
04D3
09BB
0C53
0583
F6B7
F7A9
FB07
FF60
039C
04CE
0070
F84A
F068
F818
F94F
FBFA
FDA1
F9F4
FE10
FE57
FEA9
0123
0255
FF33
012F
041C
0252
0413
094B
0AC0
0B69
08AF
FB08
F5F2
FADD
F805
0394
0616
0168
F9BA
F384
F544
F968
FD98
FD7B
FFB0
002B
FAD5
FD5A
070A
01BD
FF5D
FE82
045A
FF9D
FFFB
042C
0B04
098B
072F
F5F2
F37A
F873
FEBF
0482
FF2D
07D9
FE23
F8FD
F556
F90F
FB74
FB9E
FB2B
F654
F087
FB65
05B1
02F9
FF62
03E8
066A
0569
FF2B
0125
0629
0072
FF7E
F6A8
F140
F875
025A
0721
00D7
13C0
0705
FD4B
FB17
FBF0
F9C3
F86D
F0D7
ED97
E78C
FA8E
08DA
047D
0450
09B0
06D2
0304
0160
02E3
0137
FE69
FA1A
F53F
F9BC
06F3
0282
0516
0559
1308
0940
01AE
00B8
FCF3
FE49
F5AB
EF54
E9A8
EEA9
001D
0CA3
0848
03B7
0521
0535
04B4
01C2
012C
FBE2
FE93
FB33
F88F
FD6B
0859
006B
FF33
0001
0F72
06B8
008B
0392
0139
018F
FC4E
F617
F083
F4D6
069F
0C1A
07C2
05EC
0453
07D3
02C5
0127
FD25
FE28
FB1A
F479
F76B
0061
0473
0194
FF6F
0599
0A7D
0569
011E
FCF5
FE3F
FDA4
FA24
F921
F76D
FEB6
0510
0880
066B
0431
00CF
0138
03BB
0374
015B
F942
F450
F3BC
F6B5
0379
0103
009F
0291
06B1
0792
03C8
FA59
F6A0
FC29
FAB6
F82E
FBE5
FC06
0175
00E7
0506
031E
019B
0344
0377
00C2
FF2C
F761
F4DA
F689
F196
F758
0397
FFD4
FDA7
FF58
01CA
0818
04A0
FC4A
F84F
FB62
F74F
F9F6
014D
020F
0040
01FA
0474
01B6
026F
0307
FE61
FCDA
FE2A
F84F
F47A
F532
F4ED
F76F
FF6D
FF7F
FF2A
0170
05B5
0AE7
0D24
078E
0500
0672
05B5
04AC
06F0
0206
01AA
029B
052C
04AA
026D
0A1F
0C7A
0A1A
0B2A
0632
01BB
F9AA
F762
FCFE
FF8D
001B
01CD
0020
FD37
02A0
0B68
0C20
0D8B
0F41
0E9F
10E7
0DE2
09C3
0AE1
082D
0763
08EC
0D85
1311
1A36
16FA
11FA
1135
0C02
05A1
0277
01EA
FD66
FF69
0064
0118
FD88
047E
0281
03A6
07E7
06D4
087A
1291
1589
0F61
0AF3
0E96
14E6
1616
142F
10CE
0CA5
0CE7
0DA8
0DDB
05DE
03A8
FF20
FF86
FE91
0129
FFE2
01F5
FDBD
FE99
FE98
02D5
009C
0436
05D3
09AA
0CD0
0B62
0C7A
0D1F
0E52
0AE0
0E63
06E1
03E8
0464
0383
0224
054F
00F2
0263
0080
FDBF
0235
01FB
FE49
0138
017D
FDEB
FEFA
01F8
FFFE
0140
FF45
FF1E
017C
026E
0143
FF60
FF6D
012C
FE0C
020A
020F
FF33
FDBD
FF87
020C
0196
FE41
020C
FE13
0271
FF13
FECC
00E0
00BA
01C0
029C
00C5
01B7
04B7
00AB
0931
070C
0651
FD84
001D
FF28
013D
02D0
04BD
0637
023E
04C2
035B
FF90
00F7
FE04
0230
01B4
012B
01E5
0A5F
04BE
FF15
FEFE
041C
05CB
094B
06FA
0987
01C9
04D7
018A
035B
04A7
061D
0775
0549
0051
0627
0369
0235
068F
031A
FF6F
0235
FF9F
01A4
FEAC
05B4
06A6
057D
02A5
04CC
053F
04D4
06F9
01DE
0006
062A
0040
FDFF
03EB
03B3
FFA9
0106
FFC2
00D0
02F7
08AC
0B17
06FB
060E
01E4
008B
FDB9
F89A
FCAD
FDD9
036E
FDA3
FE2E
FEE9
0764
07BD
0692
017D
FEE7
FDAF
FEF2
01D1
0288
00B1
0175
FDDF
0008
FDDC
064B
034C
000A
FEB7
0818
0124
FED4
FF5A
FCC3
01E2
FCE3
FF35
FE92
04F9
05F7
04DC
059D
0695
036D
04D8
026F
02CD
032C
0290
0164
019E
FEF6
FF85
028E
02B8
00E1
02E1
04AA
FF68
FB2F
0349
FD02
0302
F8FE
F8EE
FC41
FBB2
019A
019D
FD47
FF79
FE38
FCF8
0257
02C5
03F8
FF8C
FFE9
0086
014F
FD02
F9DA
FC79
FE2F
F68D
FB75
00F7
FF47
0324
FB2E
00D9
FDBE
FD1E
FA3A
FE45
0165
FE1D
FF24
FC45
FC08
0084
016C
0476
FE63
FE21
FAC2
FB0A
FDBB
FD61
FCE4
F8E2
F973
F6CC
FBBD
06B7
04AF
0392
FAF2
F994
FB39
F97A
FBAD
FFB7
FFFC
FDF7
FCD4
FE26
FDF0
01E3
0114
FFE3
FFC0
FBAC
FBE6
FBFC
FD81
FA79
FCC2
FFCB
F838
FE58
FE6E
FE18
FA86
FD1B
FCD5
FB91
FB1E
0231
FCFE
0159
0190
01F9
003F
FDF4
FE8B
FDDF
FCDF
FE20
0186
FF4C
FC3B
FD59
F870
F85F
0665
0493
F2D7
F75E
FF3B
0098
00B7
FDF5
FD2A
0356
054E
07A4
03BE
035D
0186
00BE
FE5A
F773
F977
F998
F53D
F77D
FC19
FFE2
FB68
FE74
FDE9
FB40
09AF
073A
EE49
F336
FF89
FC41
FF97
FBF7
FB1D
0274
09EF
0731
0281
02C6
0314
FE15
F59E
EED1
F30A
F3D3
F286
F506
F67B
FD2E
0454
0341
0463
04BC
0B20
0CD3
FDEB
F458
FB5D
FB52
FAE8
FCD2
0240
0018
0776
0642
052E
06E3
055B
FC52
F3DD
F03F
F7BD
F4CA
EF96
F27A
F754
FFC8
0698
0506
08B1
09E2
0DF4
1290
0740
FF70
0299
FF5D
FE38
FE06
FF62
039C
0431
05F7
09CA
0AA6
0909
02FD
FB0E
F8D2
FC3B
FA54
F4B0
F6B7
FCA1
000A
02D3
04EF
0348
074F
07EE
08F2
069B
0C2B
0567
FE55
FEC1
F95C
FF02
046C
02FE
09AB
07F9
0ADF
0978
099D
07B1
02B3
0006
FF47
FF51
FED8
FF6B
0103
00EB
FE14
FDB9
FEF7
0057
01B4
0B97
0BCF
00F8
FF69
FBFE
FB13
032C
028C
0608
0220
0672
0561
08A7
0C19
08B3
04F9
053C
01E8
FE99
0020
02F9
FE5C
00B5
0116
FEAE
FEF0
FF41
0830
11EE
108F
07AF
0005
FC4D
0474
042F
0346
0320
0465
0000
04B0
04B5
0AAE
0ECD
071E
041D
0020
FFF3
0477
03D3
FEEC
FD93
FD0E
FEEF
012B
FEE6
0865
1A8F
1169
041F
FFF6
FADF
0566
FE95
FFC4
FCB5
FFC4
FFEB
02BB
07DE
0B63
10D4
0BE4
0519
FD19
024F
04DD
0162
FEE3
FCDB
004E
FE9A
FDFD
01DC
0987
17FE
08CA
0642
FDC7
FDD0
FDCC
FB72
FC7A
0008
0128
064B
0256
06FB
0E45
0EB0
0A33
039C
0200
04E4
025A
00FB
FBAD
FD51
FF6E
FC2E
03E0
077C
14DC
1169
FF58
FE95
FDAB
03AB
FF74
F534
F47E
FA7E
FDF5
05D4
054E
0489
0AFC
093D
06A3
0390
01C4
05F1
02E3
FE69
FE16
FD09
0138
044A
07D7
0A98
1241
0A89
00F5
FDD4
016F
04BC
02C5
FBE1
FD4C
FCC2
FCAE
FE8E
014F
0213
0666
04FA
04BE
02E2
00E0
041E
00E7
FC34
FFCA
04ED
068F
09CE
0961
0E07
0EBB
08A8
FE7F
FF3D
FE6F
0007
0501
0375
FCF5
0034
FED4
005C
FC81
02C6
02D1
037A
059C
0540
0624
0446
04CE
FFEA
035F
0716
0773
07E1
0DA3
103D
1129
0914
0316
FF96
FD76
01F6
024B
05BD
0481
FE74
FF24
FB2D
FF2C
FF18
0118
027E
02B5
0255
00CD
0034
FFBC
FEEE
0393
0487
0989
0EF5
0B79
1264
0B9E
0775
F921
FFC4
01A5
005F
FE82
FE3B
FC3E
F972
FAD4
FB35
FF17
FE23
FD98
FEFC
FD1F
FBE8
FA06
FA43
F860
F8FC
FDAA
0640
0ACB
0AF0
1145
13BE
0C03
0593
FC15
FDCC
0243
01E6
FCC8
F26E
F55B
F069
F4FA
F69F
FB84
F705
F73B
F899
FBEF
F555
F4F3
F665
FA51
F92B
FE54
04F7
06A4
0583
077A
0DC3
0BB1
06AF
0326
00E0
0115
01C3
00E9
FC5D
FB83
FBD9
FE6A
F730
F5B4
F78B
F78B
F76C
F870
FCA5
FF08
FDF1
FA43
FD73
014C
0412
03D7
FF28
FC31
02AF
FD84
023C
FEB4
0176
FD9E
0279
FEEC
01F3
00C3
073D
0A34
02E9
07E0
0377
0ADC
0DC0
11F2
0BB4
0A2D
0134
024D
FFDF
00E7
0488
01B4
FC24
FCE8
FF45
037D
0030
FE50
FEAF
FE2A
00E2
00CF
0114
FBEB
FC48
03CA
025D
0471
01F6
FD1E
050D
073D
FCBD
0110
FC82
FF0D
FCEC
0133
02F8
FDFA
FB85
F930
F914
00C4
0041
FFEA
FE93
FE7A
0113
0224
FF1B
FEF2
01E2
0224
FF01
FE4F
FE52
00DA
016F
FDA4
FE9C
02A9
034F
016E
0203
0020
FF4F
FE17
FE43
FFE3
0036
00A4
FEB3
00DF
002B
FF69
01DE
0221
003E
012B
FE30
FDAE
FF0F
F669
FAAB
F6B4
FB40
FDDA
FFB3
0301
01E1
0B68
0450
FB03
F9FB
F9EF
FE1A
F65B
FC0C
FED8
024C
FEAD
004B
FE84
FF1B
FF06
FA2F
FB50
FBCF
FA9D
00D2
F9E4
FD90
F7E8
F697
F1ED
F236
F6F0
FAE0
0027
00C5
F9C9
F0DC
F597
F575
F59A
F235
F875
FF72
004B
FEAF
0253
0071
FE80
FED9
F7CA
F8F1
FA93
F57C
F38D
F6F5
FBF0
F389
F37A
F3D3
F8DC
F980
FAAA
FCCF
FF75
FDCC
FB57
F70A
F6A1
F90E
FB59
0295
FCBE
FF39
020A
FCFD
FE90
FFB3
F91B
F1B0
F61B
F9B6
F87B
FF57
FE1A
FFD8
01A9
00A2
045B
09C1
06D3
0B35
0732
02DC
FC20
FE6C
FB62
FA95
037B
03E5
0142
00E8
0124
FFDC
FD7E
FDF4
F1AA
F694
FBAF
017B
0092
0337
00A1
00E5
0406
0531
03FF
07BC
0D8E
1176
11CA
0D4F
0D4B
0C2C
0A12
095E
08D3
0A9D
074E
00B1
0127
0167
0204
F4DA
F6F5
0300
00DC
0586
0696
04DB
0037
FEC6
00EA
FEA3
FB12
F801
F9E6
0200
039F
0B62
0FCB
110F
1881
1880
1485
0D51
0E4A
053C
0065
087A
094A
0320
F627
04B5
06F4
089D
0637
04FE
01D3
0122
FCBC
FB29
F6F1
F1B1
F44C
FCCF
07EF
0BC0
11C5
0FF8
1A7F
1DFE
1AAB
1483
0A33
078A
0770
03A3
0F87
03A2
FD55
057F
081F
06FA
07EF
0819
0702
0661
023B
F9D3
F3A4
F15D
F4E6
0414
08F5
0C0B
0C36
0CE7
1463
1B9A
1CB0
1120
092F
0445
FF48
0306
03CB
01AB
0102
048D
0287
01A6
05FD
093F
0AE8
093C
04B7
F9D9
F082
ECE8
F817
0977
0C25
0B54
09C6
0973
107C
1CD4
1BB0
1506
1133
0586
0233
061F
05F7
0125
0525
011F
0121
0273
056A
08BF
0A0A
051C
06E0
FB78
F0B6
F3C8
FB9B
08CD
0925
08FE
0518
0537
0B91
149F
1EA3
1B27
1301
0339
0245
0251
082C
FE70
01AA
02F7
FECC
0308
03CB
05F6
04B8
011F
FFFF
FCCF
F5DF
F6F3
FEE2
048D
0227
01C0
FDF8
FD03
01F8
07F3
11B1
1478
135A
FFF1
015C
028B
026C
04FB
FBCA
0198
FE52
FF23
FD2E
FD81
0313
0396
045E
FEC2
FA38
F8EC
FD0B
0052
FE7C
FE23
FDA4
F93D
F69E
F813
FEBE
0A6C
112A
0755
FF54
001B
079D
FBE6
F925
FE11
FED8
FFAD
FB82
FF76
0052
06A1
0615
0279
FB6C
FB11
FC43
FEED
0190
FF70
FB98
F830
F93C
F7BB
FDAD
0E51
1626
0813
06F3
010D
086A
F7EE
FEE8
FDA1
FCE3
0050
FA2B
FA4E
008A
0304
06B6
0013
0101
FD2D
FDC9
0308
0120
FFEB
FD8A
F918
FC8A
F819
00B9
06E3
0B04
0A1B
0351
FD1C
0496
025D
FE87
FE4E
FACC
FDAF
FCAB
FC2D
FBBD
FCC7
01EF
0288
00EB
009F
FF08
FD58
FF6F
FDD4
FA85
FC5F
FA18
FB42
042A
041B
0F62
01BD
F88D
FF0A
FD69
0075
FF89
FC28
FD28
FB8B
FAD4
FA45
FA86
FB17
FEDC
04CB
04E9
0560
016E
0088
FE27
FBAF
FC3E
FFEE
FBD9
FED9
052E
0587
1184
079F
025C
FB14
04AD
FEBB
0627
09CA
04CE
FD91
FD8C
FDAF
FA3A
FB76
FE68
0423
01D1
FF38
FE45
FFA1
FF04
FAD1
FDF6
FB06
F97A
FE89
0A98
037D
0F3C
056E
F869
FC11
FEF8
0012
05DA
0DD5
09CC
0624
0062
00D1
FFAD
0092
02A1
058B
FF19
FB6E
FA0F
FCF3
000A
FF2B
FC04
F779
F64C
03DE
0BCA
FEF6
020E
011B
FF35
FF2C
FF42
00BF
0707
09CC
0F55
0BB6
0608
0724
00BB
005D
0441
FF32
FF08
FDB7
FDE5
000F
0107
FF74
FBCE
F8E4
FD88
06EF
079E
FF89
0008
FECE
0219
FF1D
FEFE
FD60
064B
0DBF
0C82
0C93
06DA
02FB
0498
0523
0508
FFD2
FB65
0035
FE40
FFC5
FEA3
FC5A
FDDD
FF55
03C0
0A98
0361
FDF8
0200
FCCF
FAEC
FC62
FA0F
F996
081E
0C50
0DBD
0EB2
0812
0788
0552
02F2
0233
0072
FF64
0056
025F
FE55
FF02
FDCB
04E2
0551
0E10
097A
FFFD
01EE
FF7A
FC7A
FD73
FAAC
FC72
F9B8
025B
0A9D
0B78
106D
0B15
08A3
06CB
069B
0686
0869
049E
055A
FFBE
FCB3
0020
01C4
073B
0E3E
09A7
0048
00D2
FDC3
01B1
0069
018E
0140
00E9
F79A
F77D
FCAB
056C
0926
07CD
0946
05BA
050E
0832
0AD6
06AC
06F6
06F5
FFB8
0072
0761
09C6
07D7
FEE1
FE9B
FEA4
FE08
FFA9
002B
00CC
0042
0280
F94F
F310
F721
FB46
032C
0160
00B1
FCB4
FD05
01AD
06F5
085C
050F
0202
FEB0
0487
0497
025D
FCCF
FB11
F889
0062
0300
017D
00D4
016F
012D
FF46
06D5
FB14
F523
F9E8
FD0C
F70B
F655
F6F9
F72C
FA8D
FB16
FA1A
0229
047D
03D7
0230
00F8
F79F
F5D7
F691
FA04
0235
01E1
04CA
FDEE
01D4
FF1F
FE8F
FCAA
FD8E
FB90
FD3A
FCD2
FFF3
004A
011B
01FE
0372
03F3
FDFC
026C
01B6
03E3
FB69
FFFE
FB07
F8DF
FC43
0688
0043
0290
0015
FD8F
FE63
01BC
FE20
0114
004D
0405
016E
FF9F
FFE1
0213
FEBA
FF66
0236
0B0E
009D
FDF4
06A2
0C87
022A
02E3
003F
01AC
FCC4
0596
FDCF
FE3D
FDCD
0172
011A
FFA8
0238
025A
FE14
FF48
0252
FE85
FFD0
FEF7
FE3F
FF3C
02F5
002C
01C0
FE98
0005
FDE9
FEEB
FE95
FFD1
0159
00FC
002B
FEF7
FF56
FEA6
006C
00F1
01AD
00E5
001A
00F5
04A2
FE19
0151
00D2
FEBD
FEF5
0327
061B
052E
00AB
FDFF
0081
0144
0189
08DF
06FD
0276
FFF9
FAA5
FE8D
00D1
FEFD
009E
0270
FEDE
03DC
04F8
0301
033E
02E0
FFC9
0217
0622
0623
0709
023A
06C5
056C
0344
0478
0037
00C9
03F8
0416
0487
0613
FFE8
0785
09E4
0172
FEB4
0166
FF9B
024D
FEEE
0192
FCE9
0168
0701
0153
04ED
0628
04E4
0051
FE08
FFB0
021C
019C
02E2
02AA
0076
0097
04D4
0480
07C1
079B
FF90
FB38
008C
0005
0214
02B2
05ED
039F
0385
02AD
FEB2
017A
0379
04E4
FCBF
FBDE
026F
FFC4
FBD2
FED1
0234
0039
005C
02D8
052B
04A0
056A
FE65
F91D
FBC1
FF80
FF52
00E1
048A
0568
00F2
FC48
FF04
F94D
00B6
0036
FFD3
FBD4
FC08
FF03
0121
00AB
0020
FFCC
0004
00EE
FC26
FDE5
FD40
0187
02BE
FCA9
F700
FFE3
FEC9
0120
0711
0948
052A
000B
04E6
04E5
039E
FEE6
FF46
FAB7
FAF7
FAD1
003B
FE69
FE12
0045
0114
FFCA
FF1A
FEA9
FF99
FB22
F874
F6D5
FADC
FC5F
030D
034B
0B9B
0987
05B0
056C
0B5E
08E1
01CB
005F
FDC4
FCFA
FDD7
0050
0194
FED0
FE56
0248
FE28
FEA8
FE9A
FF8A
FC5C
FD3D
F9B0
F60D
F745
FBB3
022B
0798
0E47
0899
09F2
0312
066B
054A
02D9
0310
026D
01D2
0269
00A2
0037
FF27
FE00
FFD1
FBC5
FC2C
FAD3
FE63
FCB2
FBFC
F648
F350
F6E8
FD2F
04CB
0940
03E8
06FB
0494
0423
FFE3
FCCE
FE70
FF9B
0373
00F6
00C3
FFC0
FD1B
FB9A
FDEE
00C6
02CF
02C3
FE3A
FE2F
0056
FFE5
F374
EE62
F07F
FE55
0481
0885
0B30
0445
FD1B
02B1
FB8D
FE72
FCF6
FFF6
FE1F
00B0
0152
009E
F645
F3AB
FCDE
04AF
0808
0479
0535
03B5
070C
01EB
F4EB
E64A
EBD3
FAE1
026F
0566
0B3F
0732
FF7B
00D6
FC45
FE12
FDCE
FE1A
FD87
FEA1
FF75
F943
EA54
EAB6
F65C
03BA
05CF
0310
04AA
08FF
0FF1
0D01
FB3E
EAEB
F1F3
FF49
0130
0397
0AC6
089B
FF60
FCCF
FF6C
FFAA
0010
FD43
FEF6
0303
0298
F8E2
EB3A
E846
F76D
02DC
00A7
FEF3
007A
0924
115A
1798
18DA
03F1
F675
FCB8
011C
031F
0863
0683
FF89
0217
046A
0430
02F0
0084
00AB
045C
FEFA
EFCD
EACD
ECFA
0026
054E
FFA0
FF1F
FFCD
039B
0E94
154A
20CC
0FF2
FF07
01D0
00BC
0180
0952
0154
002F
094C
0BCB
08D6
05DA
037D
0608
05EB
FA41
EF18
EB10
F582
0453
085C
06BC
08BB
07A6
0A4D
0EEE
1289
101A
09F0
FA97
0390
0421
007D
03E6
0040
FE64
0BAA
0A05
0BBB
08AC
08B3
0853
0130
F414
ECBA
F20B
0132
0C02
0EF5
0A50
0936
0A61
0907
0A83
086C
05BF
037F
034C
FA7F
06D3
FEB1
0168
F572
F7D1
0953
076D
0A18
0920
0C39
0A51
02C5
F4AE
F048
FE2C
09FC
1164
0E40
099A
09A4
079C
0435
04EC
008E
FE35
0076
FF7E
F978
FDE5
FE4B
0511
F5D9
F5A3
00D0
030B
0349
074D
0ADF
0D46
01FC
F623
F8E0
05B8
105C
0E8A
08FA
075F
0200
0320
033F
03F6
FBB4
F855
03BA
0110
F608
05E0
00A0
0248
F395
F717
FE1F
FA61
00ED
0715
0633
08D0
00C7
FF78
FE50
0325
0937
0838
02FB
0428
025D
FC72
FE18
0185
F685
F8CB
068D
FDFF
F773
00F2
0866
0629
F988
F98A
FA8F
FCC0
FFA7
0202
025F
0691
0467
0163
0014
FF29
FE51
FED8
FE89
FD1E
009F
FD08
FDF2
FD60
FB91
F9A1
0542
0279
FF77
018F
0584
0950
FB45
FC8D
FA44
FBB3
FF61
01E1
FFD0
0503
05F7
0288
FEF1
0074
FE8A
FC1B
FC15
FE7C
FCBC
FD16
FD7A
FC42
FDDC
024A
03D2
03EE
FF3F
FFE4
029F
FE38
0416
FB75
0130
FD10
FC73
FE61
FFC9
0137
065F
00EF
0081
01D9
FFEE
004F
FD08
FEDD
FB39
FE8B
F996
FAC8
FB86
0882
022E
02BE
018C
01C6
FFA3
FF85
FF4E
FFB4
02BB
01B5
FF8B
FF99
02D7
0309
03F2
0035
01A6
0047
05CC
FF87
FDF4
FA06
FC9B
FD6C
FA8B
FCFA
F7C2
FC24
03C1
034E
032B
FDE1
019D
FCDB
F9EB
FA14
FC77
015E
0589
048B
0329
0113
0013
0248
0022
043E
00D1
FBCB
FD4A
FA16
FAC4
FAEE
FD27
FE78
F60A
FB01
0474
02CF
00D9
FEF5
FEF8
FEFC
F6A9
FA87
003C
0366
FF6C
00C6
0440
068A
0106
00D9
FC31
FC49
FE32
FFA0
FFF4
FEF2
FE4B
0067
FF86
FCCF
F54E
F54B
074A
0281
FE9F
011B
FF59
FBB3
0041
FE9E
038F
0002
01CB
01A1
FF09
FC2D
FEA0
0420
008C
005E
0036
029E
FDF5
FBAB
FDB0
FD3B
0081
FA1A
F659
F8AD
01FF
05A9
0186
FE5C
FE3D
FFAC
01A5
0276
FB28
006B
FF1D
0167
00F6
03A9
058D
0C2C
096F
04FA
035D
0A7B
09B7
066F
06C9
FFBA
01C3
00FD
014D
FF76
0025
01E3
FED5
0190
0216
024F
FFE1
05A1
06D7
0324
00B5
00C3
00E4
FE6C
019C
02DE
0C0C
0409
025C
10A5
111E
07AB
0474
01FE
02F5
0571
078E
00EE
0031
FEED
01D1
012B
FEB5
0014
0264
0269
FED6
FF26
FE7A
0188
0265
00FA
0272
01CE
02A4
FFF9
0258
FE49
00A7
00CA
0037
FE3C
011E
0167
FFF3
FEC0
FEFD
0061
FDEA
FEE7
FDA1
FE7F
01BF
0004
0537
07E0
0DEC
08F0
0841
0AC3
1150
1119
112D
01C7
0E87
108E
0B89
0DDD
0DF2
120D
0707
0ACD
08E8
FF97
FEAF
FD9A
0088
FF10
023D
FF8E
0630
0540
0770
0B84
1491
1578
157C
16F6
1BED
1E62
17F6
148F
183F
13B4
0DA4
13BE
0F0B
106F
0E2E
0F2D
0BC9
0A15
04BF
0048
00D5
0082
FE11
0097
0404
06D0
FFD3
042B
0F70
13E0
0FF8
0D38
0B77
17DD
1D35
1BAF
12A3
0E5E
0BF5
060F
0285
067C
0244
016A
0141
FF60
0192
FC89
004F
01C5
FD1D
FC49
FE71
FD1E
F6A3
F913
F9D4
FD74
04A2
04B4
0515
0BF2
1052
137B
126F
107E
1409
1066
099B
06BA
04CD
FF9A
03E0
036D
08AE
05BC
02F0
00A7
FFE4
FEA9
F8D4
F2BC
F6DE
F613
FA28
FAC6
FC0E
FDA2
FA20
02DE
045A
056D
FF34
075E
0A1B
0A5E
0796
07C8
07BE
0735
0018
016C
070F
0614
FA41
FDB1
0020
0261
F430
F755
FE5E
FBE6
F795
FE49
FEB2
FCCE
FA5B
FAE7
FC71
FD76
FB56
009B
0191
03FC
026F
00EE
04F6
0459
0320
0A68
0927
0483
027B
FF19
0A46
02AA
F8C3
FCE4
0570
02EC
01BF
0372
00EC
021C
FECA
FF01
FB0C
FC4C
017A
0293
025C
05BF
0236
0331
0089
0038
0255
07C2
039C
FE61
024D
0501
07BF
06FD
06CB
049F
09DB
0570
06B7
081C
06AD
0434
06BB
0645
00D9
0250
0416
03A5
0245
02E8
038D
04D9
01EB
008B
038E
068E
0503
076E
02C2
054C
0A05
0751
0CEE
0D9A
0A7C
010B
0585
085D
05A6
07C6
06F2
0476
0288
06D1
03E1
0354
036D
0493
02BD
0274
025F
01BC
08D1
0DA8
102A
0E83
05F1
035A
075E
08BD
0F36
0F07
0742
0813
0629
0A76
07CA
08ED
09FF
0547
0988
0B4C
0438
005E
02F1
031D
0378
046F
0174
049A
0816
10A2
11C4
0F41
034F
0245
0A63
0B3C
099E
06DC
03E9
0353
054F
0416
098B
066B
0689
04F7
08CC
035F
F831
F7CD
FBA7
FD5F
FCD0
FD48
FA90
FED3
09FC
1190
0AC7
0AB6
01FF
FFB3
077D
0822
0283
FC50
01BE
0071
025C
0105
00DB
02B3
01C1
FCB0
FAE9
F8BF
F44F
F49A
F7FD
F73A
F8C7
F762
F764
FB83
07CB
0B1D
0CA8
0423
FFF4
02AC
07BC
0BC2
FB2F
F5B5
FE45
FA9A
FB85
FBBC
FD4D
FF71
FD5B
F6EB
F1E3
F844
F5B0
F5A7
F79E
F71A
F674
F8DA
FBC5
0253
1024
1000
0602
FED4
FB08
0561
02DF
0B8C
F892
F3A7
FA20
F8A1
F985
