09D1
0B80
E987
ECDB
03AB
E44B
06C3
DB40
FB0F
0AAC
E131
12F2
07ED
E570
E13E
089C
EC38
D742
0BCE
F0CA
0447
D921
08A9
FDC6
0DF2
0628
11CD
FB19
08DB
03BF
E9EE
F407
09BB
CA9A
0F8C
0A71
0496
0413
FBBB
E16D
EDE2
0A2C
F358
FFBF
099E
E891
E811
E403
E93E
0477
0292
FACF
0498
DF0A
1B90
F657
F3BA
10B3
0D82
0753
0824
EFF9
E4E7
DAC1
01D7
1270
0603
E528
E51D
103C
07BA
E6A9
FE27
0229
0C34
E14F
F088
0C34
EFC7
014C
0B82
FC5F
1B61
02D2
D475
EA32
F32E
0797
F6A5
0A53
015C
0FD8
F0AA
04A0
EE96
DE42
00B4
07E5
F2FC
08FF
1040
E54A
0BB3
F124
E137
D432
1332
F241
E67A
0ED4
D86D
FC28
09CA
028C
E444
F576
F423
E9C1
0A72
EC20
0A4E
FA02
04C9
F3FB
F7B1
00DA
DB4C
09B0
FA1B
F2EA
F82D
F707
EF60
1639
EA9D
1333
0817
0E43
1567
07BA
01BF
F274
F31E
E6D5
E798
F215
DDE8
0FCF
0235
1237
E28D
E9EE
E033
FA2A
EAF3
E43A
FC8A
E53A
FE33
F40A
12E8
E671
F5E8
E516
EC87
F410
0C5B
F823
F808
EC61
F824
1839
EFF6
129D
0D6C
E722
1277
1058
EFA2
F46C
0681
E92E
F5C4
FB3C
099C
EE6D
DE3A
E216
ECB7
E0E9
E842
E482
FFE7
EDBF
E489
0A99
1360
FD80
EDA2
1264
1D15
0BC0
ED67
0465
1286
1376
0629
F214
FBCD
DC82
FCAB
0E65
03F7
0F80
0FFA
1299
E61F
EA1C
E953
EEE3
0336
EF0D
E239
E9DA
13A7
E3A6
0D41
0CC9
E342
137E
FA87
E906
0C33
EBAA
F89E
0428
F5E0
F589
1898
1545
F1EC
EA3F
FCC4
1126
F222
080A
DECF
0796
F82C
0CDF
E18E
18AF
F61F
FD06
0AAE
E80C
E02C
EC57
0D4B
05A4
F608
0226
155F
FA86
0095
EE90
F77A
F3A5
E4CE
0CFA
DC9F
0001
0ACA
EA4E
0849
0293
07A9
E081
1445
0386
062B
FE58
03B2
E449
EC1C
F603
E460
11A1
EDCD
1FAA
F74F
034D
0E99
0845
DE71
F12C
E6F8
00F8
1080
0435
0961
DB27
1462
E26C
0ADF
ED96
016B
E49B
00A8
1E1A
F580
0C4B
1004
FA4C
10D1
0E03
02E6
FDD8
E574
D57D
EF1A
0E62
0D2A
FD77
F384
EC9C
FAD9
F465
06FE
EA15
F10B
EDA1
10AD
0718
E932
0C36
FE91
0BB3
DD2C
0C31
212A
026E
106B
E455
062A
EC0F
F163
051B
069F
0494
1075
1613
135D
0788
1108
EFD0
FD37
0D69
13E6
E360
0FEC
F669
EBF5
EEBB
EB87
0B02
D576
138F
10AC
0676
0CE0
E2CD
FD82
DA8D
E7EF
0550
F9B9
0A41
0DB5
E7F4
F89F
0C22
0031
E6C2
FBDE
0FDA
E3DF
FA96
E3FB
DA2E
EE86
F266
0D83
091D
04A2
E522
0D09
F814
079A
11C8
0C8C
1714
D8AD
0B10
0595
0B34
E50C
E94E
DCF0
F79C
EA80
166C
0DF0
0686
F5D3
F632
0857
D6E1
07E8
F91B
0385
ED5D
0B49
0EEA
E42F
08B2
EB46
E0FC
0264
179A
1023
DDC8
EA50
F405
0116
0D46
0962
E07E
E8EA
055F
083A
E8FC
E91D
FB6F
0BC3
F525
D8A3
D391
10EC
FA5A
EA05
FE65
F4FE
FDEB
0932
EE78
DF51
E9E8
ED42
FDD3
DCB0
E8F5
0C46
0E8D
FB0B
F683
E716
098D
F759
E7DB
EA52
E242
F709
1073
EF10
0BAF
0F50
00E2
08C2
F2C8
1506
1076
0734
04DE
0392
0184
E4C4
D606
0932
F0C0
DDC5
EFA7
F7DC
0842
DFD3
0F20
0C10
0693
068C
EBD6
0859
12DD
0902
0AC4
FD22
F2F0
ECAE
E191
08B5
FCAA
058E
EA35
FCB0
E223
FCD1
F144
0799
0776
FDC8
E4CF
E210
F69C
E6C1
0AB2
01B0
D6EE
1542
E66C
0C2E
0A6C
0411
0D95
EF63
F348
F9E8
11BD
05C3
E26B
FDA1
DB8E
EB8E
02D5
05B3
02C8
E522
E3AE
E072
1146
F6DA
ECDB
0767
02AE
0006
E814
F9B6
EBED
EA57
FEC1
19E3
0E49
D96E
0F11
DF74
0AE7
EE40
0A85
07DA
DFE2
E79B
EB32
05EE
0E2C
F901
16D0
084E
0102
EFFE
E421
F9FB
028E
F5DC
0BD0
121A
F831
199B
01CE
ECC8
10F2
FB61
EBE7
FA7E
0DE4
E1E3
113C
F6BA
133C
E048
012D
FDFF
097C
1BDC
03E9
0E4E
F7C0
E67C
0D2E
DE8E
108A
EC44
015D
0E27
E1DD
F16D
E554
0BFC
092D
E730
FFA2
E56B
06F1
017D
DB97
E5CB
F01D
FC84
FCE2
090C
0856
1198
02A6
F313
034A
066C
0518
0458
0F60
0746
0F6F
E3C5
FDC6
08B7
092C
12E0
EEBE
1FE7
E81D
FB03
122B
ED06
F064
EF2B
EC47
0C25
0095
0399
FFCF
0915
FA2E
1701
11E6
0E23
15B1
FB0F
1440
D5A1
09A2
D9A8
F237
0FAA
FD2B
05A8
F475
FF13
F698
0102
F9EC
EC78
0C58
0289
11FC
E08D
08A1
F391
F115
078A
F452
E563
DF23
1248
F612
EB40
ED4F
FB9B
EF59
DADE
FD6F
F5DA
088A
0894
0A9F
F793
FCFF
24D2
DAB9
12C8
FCAE
112E
1594
0CB7
EA4B
F18D
0B57
21A4
EB54
125D
065C
F7C5
F09C
0DAD
ECD9
0FB0
FDBC
DD50
F056
F057
E73A
D945
0850
E9BA
FE33
FCE0
E853
F11F
0706
069C
07BE
E418
EAE3
11E1
F9AD
EB73
F593
E1A4
07F5
0F27
247F
155E
F038
0D64
EF7B
FB00
F54C
E85D
14BC
DCBD
14BE
0AC4
DBC0
0D24
F742
ECA5
DE94
F1EF
E511
ECB7
EF85
0AB1
0A43
0F3B
03B1
F64F
EC3A
075F
F124
F35D
E4DA
0CDA
050B
1115
F780
06F8
DE7F
0DDA
E2EE
F646
E176
F78F
EF4B
E406
008E
0AC9
E637
0926
02BE
FD34
E63E
F9E5
E778
0B6D
E1C9
F67A
FAB1
FD57
DB43
EDCB
05A4
F1A1
DD0F
0FBE
09BA
FADD
0326
0869
E64F
DC51
F12A
11DB
0D1A
114B
F2CD
0D30
1539
E1E8
DEBA
03CE
F8EE
EE77
EE82
FED3
13B6
DF6B
FF19
DC4E
E088
02B3
0B6D
D896
0DDF
F256
E552
E493
0CE2
FFDA
D94A
0A61
1107
0EAF
EAEF
0B55
096B
DEA7
EB2D
D38F
0EEF
FBDC
0E5C
0E94
F5E2
E9C5
03E0
0F88
0E25
089F
085E
DC1C
FD8E
F866
054A
F33B
D903
05F8
1086
E345
E155
F625
1168
106B
DFC8
E84D
DD04
0550
0101
00FC
0A78
08B4
E5A1
F56B
0B49
0C6F
FD37
05D1
EA81
EE60
0BAD
0F47
091A
2353
DE4F
F821
082A
048B
ED7B
0214
03E0
0C41
FD88
D765
FD55
EDE1
F4A8
0A18
024A
0A51
0625
EC65
E981
0855
098B
DDD6
FA6D
0C67
0844
12B6
121C
E36B
0D64
FDFB
F5D7
E9B4
297E
086E
0C51
050C
FB8B
FAEA
D93A
E5C9
DEAC
F831
097B
0900
060F
F4CA
12A9
0F07
F5D7
09B2
1044
EE01
F2B1
173D
15D8
F4E5
FE79
0511
E8FD
0FCF
F910
0EAC
1A4A
F51B
05DF
E295
01D3
0835
F237
E8C8
FDC0
F6C3
0C2E
1B69
1262
07C4
D5E9
0373
0A0C
D19C
E683
13B5
FCE1
2440
F771
FFC6
04BE
11AD
E7E8
0DDA
0768
E7A6
E737
01E3
03AC
F54C
0C22
FB3A
E72B
0927
FA39
DFE8
E8B3
1235
E35E
FAAE
EF39
F44D
067D
1F37
F113
F35B
FF71
F61F
E76E
0F5A
0AC7
0585
0C86
0D1E
13C6
E293
0CA6
0961
F789
D9A9
FFD5
ED1F
EF54
09A4
0C24
DDA3
0BBB
124F
FD43
079D
0A87
E4DB
0BD9
FFE6
0BAE
0037
FBF0
F422
CA45
E6AD
F2FF
03E6
E4A0
0008
057C
E920
09F9
D592
EDA8
0A2B
0E06
0FFE
10A0
076D
D7A2
0FC9
0356
0D5E
0BB8
FCB0
0089
0581
110F
08BD
E7EA
E6DB
F5D2
0312
F131
E28E
07FD
EAFD
0891
0011
E8D2
DE35
0ABB
0BD3
0B74
EBB8
F7DF
E60B
EAFC
E0BF
D4E2
CA51
0494
0870
F077
FBDB
07DF
07B4
0AFC
D008
0E8E
EE4A
021D
0B00
E469
F858
0856
06EB
0110
DBC0
0CA0
C000
CF4F
F990
F67A
E0F0
EF16
09B6
F276
05D1
EFD5
F63E
F809
F39F
01EC
04CA
046A
0F05
022A
F65B
0D7B
F125
E039
D41D
0EBD
0EE6
FD32
F6E8
E578
042C
0507
0A1D
00A3
00E9
E697
0734
0EAE
0A12
13AB
029A
E743
0A1E
0C5A
E5B5
0B7E
DC57
EB00
0006
180E
FDF4
0AEE
E81A
0E8C
DBD2
0F61
D72D
FB41
FE84
0A84
E2E3
135D
0888
0229
0F32
0504
03AA
0182
1230
EAFC
F95B
E9F8
F591
0B6E
07BC
F3C3
09EC
03E7
EB54
C3C9
E860
0413
0DC7
0EAE
08FF
11FE
0A8A
F50D
DE67
083E
DF47
F86B
EC5A
0448
EA7F
FDE2
0733
06B5
13E9
DD3D
FD0B
D730
186E
F1E8
FBF3
017C
E9D8
D721
FEF2
09B4
F316
1266
EF80
0013
FE79
002A
106A
091C
DAB8
05D9
F0B7
057B
EFFE
EA76
F9BC
06C9
DDB8
0865
01C8
F7F5
C73C
1362
0C3B
F9A7
DF25
0ECB
03C9
0A5B
FE8C
D5EA
D77D
06CB
09E5
0034
F9EB
138C
0BA1
E4D8
0624
F69F
D7C8
0ADB
18C5
0C26
0295
00D9
E714
F3F0
F703
F3F7
F6E2
0C1A
F8E4
0424
0935
DE58
04EC
E8C2
101E
02CF
F949
F6B6
D770
F073
